{
  "version": "1.0",
  "truncation": null,
  "padding": null,
  "added_tokens": [
    {
      "id": 0,
      "content": "<UNK>",
      "single_word": false,
      "lstrip": false,
      "rstrip": false,
      "normalized": false,
      "special": true
    },
    {
      "id": 1,
      "content": "<PAD>",
      "single_word": false,
      "lstrip": false,
      "rstrip": false,
      "normalized": false,
      "special": true
    },
    {
      "id": 2,
      "content": "<BOS>",
      "single_word": false,
      "lstrip": false,
      "rstrip": false,
      "normalized": false,
      "special": true
    },
    {
      "id": 3,
      "content": "<EOS>",
      "single_word": false,
      "lstrip": false,
      "rstrip": false,
      "normalized": false,
      "special": true
    }
  ],
  "normalizer": null,
  "pre_tokenizer": {
    "type": "Whitespace"
  },
  "post_processor": null,
  "decoder": null,
  "model": {
    "type": "BPE",
    "dropout": null,
    "unk_token": "<UNK>",
    "continuing_subword_prefix": null,
    "end_of_word_suffix": null,
    "fuse_unk": false,
    "byte_fallback": false,
    "ignore_merges": false,
    "vocab": {
      "<UNK>": 0,
      "<PAD>": 1,
      "<BOS>": 2,
      "<EOS>": 3,
      "!": 4,
      "\"": 5,
      "$": 6,
      "%": 7,
      "&": 8,
      "'": 9,
      "(": 10,
      ")": 11,
      "+": 12,
      ",": 13,
      "-": 14,
      ".": 15,
      "/": 16,
      "0": 17,
      "1": 18,
      "2": 19,
      "3": 20,
      "4": 21,
      "5": 22,
      "6": 23,
      "7": 24,
      "8": 25,
      "9": 26,
      ":": 27,
      ";": 28,
      "=": 29,
      ">": 30,
      "?": 31,
      "A": 32,
      "B": 33,
      "C": 34,
      "D": 35,
      "E": 36,
      "F": 37,
      "G": 38,
      "H": 39,
      "I": 40,
      "J": 41,
      "K": 42,
      "L": 43,
      "M": 44,
      "N": 45,
      "O": 46,
      "P": 47,
      "Q": 48,
      "R": 49,
      "S": 50,
      "T": 51,
      "U": 52,
      "V": 53,
      "W": 54,
      "X": 55,
      "Y": 56,
      "Z": 57,
      "\\": 58,
      "_": 59,
      "a": 60,
      "b": 61,
      "c": 62,
      "d": 63,
      "e": 64,
      "f": 65,
      "g": 66,
      "h": 67,
      "i": 68,
      "j": 69,
      "k": 70,
      "l": 71,
      "m": 72,
      "n": 73,
      "o": 74,
      "p": 75,
      "q": 76,
      "r": 77,
      "s": 78,
      "t": 79,
      "u": 80,
      "v": 81,
      "w": 82,
      "x": 83,
      "y": 84,
      "z": 85,
      "{": 86,
      "|": 87,
      "}": 88,
      "~": 89,
      "°": 90,
      "·": 91,
      "á": 92,
      "ï": 93,
      "ó": 94,
      "ü": 95,
      "Č": 96,
      "ń": 97,
      "‑": 98,
      "–": 99,
      "—": 100,
      "ℓ": 101,
      "ℵ": 102,
      "⇒": 103,
      "in": 104,
      "th": 105,
      "er": 106,
      "on": 107,
      "at": 108,
      "an": 109,
      "re": 110,
      "en": 111,
      "al": 112,
      "or": 113,
      "ed": 114,
      "the": 115,
      "ar": 116,
      "ing": 117,
      "es": 118,
      "ti": 119,
      "is": 120,
      "le": 121,
      "as": 122,
      "of": 123,
      "ch": 124,
      "to": 125,
      "ro": 126,
      "and": 127,
      "ic": 128,
      "de": 129,
      "ion": 130,
      "us": 131,
      "co": 132,
      "ve": 133,
      "it": 134,
      "ation": 135,
      "ent": 136,
      "pro": 137,
      "st": 138,
      "ma": 139,
      "be": 140,
      "ly": 141,
      "ut": 142,
      "mp": 143,
      "ra": 144,
      "ne": 145,
      "tion": 146,
      "se": 147,
      "for": 148,
      "ce": 149,
      "su": 150,
      "mo": 151,
      "lear": 152,
      "that": 153,
      "learn": 154,
      "un": 155,
      "lo": 156,
      "ur": 157,
      "ct": 158,
      "ig": 159,
      "AI": 160,
      "me": 161,
      "ers": 162,
      "ith": 163,
      "learning": 164,
      "ul": 165,
      "te": 166,
      "con": 167,
      "Th": 168,
      "ab": 169,
      "are": 170,
      "il": 171,
      "ge": 172,
      "no": 173,
      "ac": 174,
      "wor": 175,
      "res": 176,
      "si": 177,
      "so": 178,
      "by": 179,
      "ine": 180,
      "ms": 181,
      "comp": 182,
      "fic": 183,
      "dat": 184,
      "20": 185,
      "ex": 186,
      "ener": 187,
      "wh": 188,
      "per": 189,
      "del": 190,
      "work": 191,
      "ter": 192,
      "cl": 193,
      "po": 194,
      "ha": 195,
      "model": 196,
      "In": 197,
      "di": 198,
      "ate": 199,
      "pe": 200,
      "with": 201,
      "ver": 202,
      "ep": 203,
      "tra": 204,
      "la": 205,
      "data": 206,
      "man": 207,
      "ment": 208,
      "ts": 209,
      "gener": 210,
      "ap": 211,
      "ess": 212,
      "The": 213,
      "ir": 214,
      "ial": 215,
      "can": 216,
      "tic": 217,
      "tr": 218,
      "net": 219,
      "ll": 220,
      "qu": 221,
      "mach": 222,
      "arch": 223,
      "train": 224,
      "network": 225,
      "id": 226,
      "ive": 227,
      "sy": 228,
      "ad": 229,
      "ther": 230,
      "pre": 231,
      "ity": 232,
      "ence": 233,
      "li": 234,
      "rom": 235,
      "ations": 236,
      "ol": 237,
      "we": 238,
      "ated": 239,
      "ical": 240,
      "such": 241,
      "ative": 242,
      "machine": 243,
      "from": 244,
      "out": 245,
      "neur": 246,
      "ction": 247,
      "ni": 248,
      "used": 249,
      "form": 250,
      "ste": 251,
      "have": 252,
      "ke": 253,
      "fe": 254,
      "gor": 255,
      "und": 256,
      "igh": 257,
      "ag": 258,
      "ie": 259,
      "du": 260,
      "ere": 261,
      "deep": 262,
      "models": 263,
      "ach": 264,
      "ble": 265,
      "im": 266,
      "put": 267,
      "syste": 268,
      "cess": 269,
      "dis": 270,
      "od": 271,
      "enti": 272,
      "search": 273,
      "gorith": 274,
      "ud": 275,
      "ho": 276,
      "ci": 277,
      "lay": 278,
      "algorith": 279,
      "neural": 280,
      "19": 281,
      "pl": 282,
      "use": 283,
      "not": 284,
      "networks": 285,
      "comput": 286,
      "able": 287,
      "gra": 288,
      "hu": 289,
      "led": 290,
      "com": 291,
      "whi": 292,
      "gu": 293,
      "op": 294,
      "spe": 295,
      "inte": 296,
      "cre": 297,
      "ta": 298,
      "bo": 299,
      "ri": 300,
      "was": 301,
      "ima": 302,
      "par": 303,
      "ased": 304,
      "training": 305,
      "human": 306,
      "ans": 307,
      "rep": 308,
      "has": 309,
      "ty": 310,
      "llig": 311,
      "vi": 312,
      "incl": 313,
      "ally": 314,
      "been": 315,
      "202": 316,
      "log": 317,
      "ficial": 318,
      "amp": 319,
      "ous": 320,
      "ari": 321,
      "ld": 322,
      "ting": 323,
      "ure": 324,
      "tificial": 325,
      "cal": 326,
      "ks": 327,
      "ill": 328,
      "which": 329,
      "dic": 330,
      "mat": 331,
      "sion": 332,
      "end": 333,
      "intellig": 334,
      "act": 335,
      "fer": 336,
      "ies": 337,
      "ted": 338,
      "cog": 339,
      "do": 340,
      "des": 341,
      "ph": 342,
      "ug": 343,
      "tive": 344,
      "its": 345,
      "fo": 346,
      "research": 347,
      "tions": 348,
      "clas": 349,
      "am": 350,
      "vis": 351,
      "201": 352,
      "generative": 353,
      "str": 354,
      "proble": 355,
      "process": 356,
      "now": 357,
      "mb": 358,
      "meth": 359,
      "cogni": 360,
      "NN": 361,
      "arge": 362,
      "ob": 363,
      "ind": 364,
      "lop": 365,
      "age": 366,
      "ef": 367,
      "other": 368,
      "ory": 369,
      "oft": 370,
      "velop": 371,
      "abil": 372,
      "based": 373,
      "their": 374,
      "develop": 375,
      "ign": 376,
      "method": 377,
      "artificial": 378,
      "low": 379,
      "ack": 380,
      "systems": 381,
      "over": 382,
      "ard": 383,
      "intelligence": 384,
      "De": 385,
      "cis": 386,
      "ys": 387,
      "bl": 388,
      "know": 389,
      "ugh": 390,
      "ame": 391,
      "ev": 392,
      "imp": 393,
      "om": 394,
      "uld": 395,
      "predic": 396,
      "tas": 397,
      "ant": 398,
      "tech": 399,
      "examp": 400,
      "les": 401,
      "were": 402,
      "input": 403,
      "one": 404,
      "recogni": 405,
      "istic": 406,
      "more": 407,
      "mul": 408,
      "resent": 409,
      "cer": 410,
      "ect": 411,
      "tim": 412,
      "progra": 413,
      "tern": 414,
      "),": 415,
      "ges": 416,
      "wo": 417,
      "also": 418,
      "cont": 419,
      "appro": 420,
      "bi": 421,
      "ced": 422,
      "if": 423,
      "lan": 424,
      "all": 425,
      "ors": 426,
      "Go": 427,
      "ear": 428,
      "ures": 429,
      "int": 430,
      "dif": 431,
      "comm": 432,
      "represent": 433,
      ").": 434,
      "they": 435,
      "super": 436,
      "algorithms": 437,
      "tain": 438,
      "cor": 439,
      "trans": 440,
      "trained": 441,
      "ield": 442,
      "classi": 443,
      "cision": 444,
      "but": 445,
      "ces": 446,
      "der": 447,
      "iv": 448,
      "into": 449,
      "produ": 450,
      "bet": 451,
      "includ": 452,
      "au": 453,
      "may": 454,
      "Deep": 455,
      "iz": 456,
      "min": 457,
      "nu": 458,
      "ser": 459,
      "set": 460,
      "pos": 461,
      "langu": 462,
      "ay": 463,
      "field": 464,
      "xt": 465,
      "ates": 466,
      "ist": 467,
      "decision": 468,
      "cial": 469,
      "ties": 470,
      "ments": 471,
      "how": 472,
      "plic": 473,
      "el": 474,
      "est": 475,
      "algorithm": 476,
      "methods": 477,
      "fa": 478,
      "large": 479,
      "ong": 480,
      "reg": 481,
      "This": 482,
      "output": 483,
      "vari": 484,
      "inform": 485,
      "using": 486,
      "image": 487,
      "\".": 488,
      "et": 489,
      "ware": 490,
      "this": 491,
      "rel": 492,
      "ish": 493,
      "sol": 494,
      "recognition": 495,
      "ort": 496,
      "king": 497,
      "og": 498,
      "any": 499,
      "anal": 500,
      "ics": 501,
      "some": 502,
      "under": 503,
      "system": 504,
      "0s": 505,
      "cur": 506,
      "go": 507,
      "ire": 508,
      "ubl": 509,
      "than": 510,
      "these": 511,
      "ular": 512,
      "many": 513,
      "tasks": 514,
      "cy": 515,
      "mis": 516,
      "sp": 517,
      "up": 518,
      "ons": 519,
      "layer": 520,
      "vised": 521,
      "requ": 522,
      "like": 523,
      "ight": 524,
      "It": 525,
      "cent": 526,
      "ech": 527,
      "high": 528,
      "wer": 529,
      "ree": 530,
      "layers": 531,
      "ines": 532,
      "ary": 533,
      "ational": 534,
      "prov": 535,
      "sub": 536,
      "unction": 537,
      "example": 538,
      "ude": 539,
      "ution": 540,
      "will": 541,
      "ance": 542,
      "text": 543,
      "fication": 544,
      "ques": 545,
      "ween": 546,
      "feat": 547,
      "ability": 548,
      "multi": 549,
      "program": 550,
      "language": 551,
      "ful": 552,
      "mar": 553,
      "pat": 554,
      "publ": 555,
      "ual": 556,
      "ating": 557,
      "applic": 558,
      "ically": 559,
      "between": 560,
      "including": 561,
      "serv": 562,
      "GP": 563,
      "ding": 564,
      "fi": 565,
      "function": 566,
      "ip": 567,
      "ren": 568,
      "ase": 569,
      "new": 570,
      "problems": 571,
      "information": 572,
      "fir": 573,
      "ning": 574,
      "pr": 575,
      "val": 576,
      "inter": 577,
      "ents": 578,
      "Goog": 579,
      "supervised": 580,
      "Google": 581,
      "St": 582,
      "soft": 583,
      "cep": 584,
      "ential": 585,
      "images": 586,
      "vide": 587,
      "techni": 588,
      "00": 589,
      "os": 590,
      "ves": 591,
      "vers": 592,
      "time": 593,
      "lect": 594,
      "rough": 595,
      "def": 596,
      "exp": 597,
      "power": 598,
      "computer": 599,
      "ctive": 600,
      "our": 601,
      "incre": 602,
      "ese": 603,
      "most": 604,
      "speech": 605,
      "Ch": 606,
      "back": 607,
      "cri": 608,
      "med": 609,
      "dep": 610,
      "For": 611,
      "ris": 612,
      "exper": 613,
      "old": 614,
      "ledge": 615,
      "typ": 616,
      "include": 617,
      "called": 618,
      "researchers": 619,
      "pattern": 620,
      "ass": 621,
      "ast": 622,
      "about": 623,
      "where": 624,
      "stru": 625,
      "vir": 626,
      "tho": 627,
      "ases": 628,
      "problem": 629,
      "approach": 630,
      "Re": 631,
      "ject": 632,
      "line": 633,
      "through": 634,
      "resu": 635,
      "prob": 636,
      "NNs": 637,
      "knowledge": 638,
      "differ": 639,
      "first": 640,
      "resul": 641,
      "Un": 642,
      "ca": 643,
      "uses": 644,
      "vel": 645,
      "ress": 646,
      "ression": 647,
      "labe": 648,
      "general": 649,
      "identi": 650,
      "speci": 651,
      "mber": 652,
      "developed": 653,
      "would": 654,
      "goal": 655,
      "he": 656,
      "sci": 657,
      "ens": 658,
      "lex": 659,
      "dete": 660,
      "content": 661,
      "classification": 662,
      "Al": 663,
      "themat": 664,
      "ite": 665,
      "make": 666,
      "mathemat": 667,
      "tional": 668,
      "uring": 669,
      "pot": 670,
      "very": 671,
      "wever": 672,
      "199": 673,
      "logy": 674,
      "processing": 675,
      "applications": 676,
      "Gener": 677,
      "fy": 678,
      "mer": 679,
      "men": 680,
      "ust": 681,
      "ited": 682,
      "had": 683,
      "tri": 684,
      "often": 685,
      "techniques": 686,
      "cu": 687,
      "cap": 688,
      "lic": 689,
      "vol": 690,
      "ward": 691,
      "then": 692,
      "real": 693,
      "reas": 694,
      "itect": 695,
      "consi": 696,
      "ilar": 697,
      "fici": 698,
      "perform": 699,
      "architect": 700,
      "198": 701,
      "optim": 702,
      "cern": 703,
      "certain": 704,
      "possi": 705,
      "specific": 706,
      "ace": 707,
      "ities": 708,
      "kes": 709,
      "ple": 710,
      "xim": 711,
      "eng": 712,
      "allow": 713,
      "theory": 714,
      "art": 715,
      "rain": 716,
      "loy": 717,
      "ural": 718,
      "what": 719,
      "when": 720,
      "ticular": 721,
      "both": 722,
      "2023": 723,
      "design": 724,
      "require": 725,
      "struct": 726,
      "av": 727,
      "each": 728,
      "fact": 729,
      "gan": 730,
      "gro": 731,
      "pon": 732,
      "ran": 733,
      "scal": 734,
      "only": 735,
      "argu": 736,
      "tool": 737,
      "dem": 738,
      "app": 739,
      "ople": 740,
      "auto": 741,
      "ished": 742,
      "reason": 743,
      ".,": 744,
      "An": 745,
      "Ho": 746,
      "Mach": 747,
      "oper": 748,
      "pag": 749,
      "show": 750,
      "two": 751,
      "ze": 752,
      "rodu": 753,
      "ices": 754,
      "state": 755,
      "stud": 756,
      "suc": 757,
      "conne": 758,
      "term": 759,
      "people": 760,
      "veral": 761,
      "particular": 762,
      "effe": 763,
      "early": 764,
      "pri": 765,
      "sign": 766,
      "ving": 767,
      "envir": 768,
      "level": 769,
      "main": 770,
      "concern": 771,
      "logic": 772,
      "illion": 773,
      "found": 774,
      "ysis": 775,
      "known": 776,
      "bio": 777,
      "introdu": 778,
      "features": 779,
      "GPT": 780,
      "success": 781,
      "environ": 782,
      "eth": 783,
      "elect": 784,
      "hand": 785,
      "lf": 786,
      "sh": 787,
      "atistic": 788,
      "them": 789,
      "propag": 790,
      "being": 791,
      "mous": 792,
      "cts": 793,
      "cted": 794,
      "perfor": 795,
      "tical": 796,
      "lied": 797,
      "well": 798,
      "patterns": 799,
      "Generative": 800,
      "\",": 801,
      "bu": 802,
      "den": 803,
      "gy": 804,
      "hi": 805,
      "mal": 806,
      "ness": 807,
      "sing": 808,
      "wn": 809,
      "way": 810,
      "anies": 811,
      "redu": 812,
      "ences": 813,
      "col": 814,
      "could": 815,
      "These": 816,
      "dimen": 817,
      "generated": 818,
      "They": 819,
      "neurons": 820,
      "2024": 821,
      "techno": 822,
      "curren": 823,
      "software": 824,
      "experi": 825,
      "cause": 826,
      "consider": 827,
      "scale": 828,
      "reasoning": 829,
      "However": 830,
      "dimension": 831,
      "Pro": 832,
      "af": 833,
      "ide": 834,
      "less": 835,
      "milar": 836,
      "non": 837,
      "ually": 838,
      "ved": 839,
      "red": 840,
      "tiv": 841,
      "ism": 842,
      "come": 843,
      "statistic": 844,
      "several": 845,
      "sur": 846,
      "temp": 847,
      "respon": 848,
      "similar": 849,
      "complex": 850,
      "who": 851,
      "works": 852,
      "there": 853,
      "class": 854,
      "observ": 855,
      "transform": 856,
      "iven": 857,
      "analysis": 858,
      "linear": 859,
      "ficient": 860,
      "Ar": 861,
      "ber": 862,
      "cr": 863,
      "clo": 864,
      "gen": 865,
      "hard": 866,
      "ia": 867,
      "ling": 868,
      "ore": 869,
      "pp": 870,
      "ator": 871,
      "ality": 872,
      "lead": 873,
      "prove": 874,
      "self": 875,
      "mance": 876,
      "generation": 877,
      "adv": 878,
      "ights": 879,
      "ages": 880,
      "disco": 881,
      "plan": 882,
      "development": 883,
      "examples": 884,
      "number": 885,
      "multiple": 886,
      "applied": 887,
      "performance": 888,
      "Co": 889,
      "Ne": 890,
      "US": 891,
      "cus": 892,
      "clear": 893,
      "fra": 894,
      "find": 895,
      "gr": 896,
      "ming": 897,
      "pa": 898,
      "sig": 899,
      "ue": 900,
      "ince": 901,
      "anti": 902,
      "rect": 903,
      "ise": 904,
      "chan": 905,
      "robo": 906,
      "icro": 907,
      "usion": 908,
      "sequ": 909,
      "learned": 910,
      "world": 911,
      "companies": 912,
      "generate": 913,
      "machines": 914,
      "improve": 915,
      "descri": 916,
      "mbol": 917,
      "posed": 918,
      "decisions": 919,
      "related": 920,
      "typically": 921,
      "mathematical": 922,
      "introduced": 923,
      "environment": 924,
      "current": 925,
      "Ge": 926,
      "LL": 927,
      "Net": 928,
      "brain": 929,
      "iti": 930,
      "ner": 931,
      "ok": 932,
      "pers": 933,
      "play": 934,
      "sa": 935,
      "sti": 936,
      "ten": 937,
      "rele": 938,
      "off": 939,
      "uton": 940,
      "force": 941,
      "action": 942,
      "ficul": 943,
      "ficant": 944,
      "200": 945,
      "symbol": 946,
      "nificant": 947,
      "while": 948,
      "logical": 949,
      "programs": 950,
      "approxim": 951,
      "difficul": 952,
      "regul": 953,
      "public": 954,
      "video": 955,
      "defin": 956,
      "depend": 957,
      "though": 958,
      "results": 959,
      "identify": 960,
      "possible": 961,
      "study": 962,
      "signal": 963,
      "electr": 964,
      "significant": 965,
      ".\"": 966,
      "emp": 967,
      "fit": 968,
      "lat": 969,
      "long": 970,
      "ss": 971,
      "sit": 972,
      "estim": 973,
      "isation": 974,
      "ice": 975,
      "making": 976,
      "beha": 977,
      "ctor": 978,
      "ules": 979,
      "There": 980,
      "ables": 981,
      "word": 982,
      "without": 983,
      "distri": 984,
      "predict": 985,
      "space": 986,
      "published": 987,
      "different": 988,
      "potential": 989,
      "tools": 990,
      "Machine": 991,
      "Con": 992,
      "ST": 993,
      "ak": 994,
      "ail": 995,
      "auton": 996,
      "fin": 997,
      "given": 998,
      "hel": 999,
      "hold": 1000,
      "nat": 1001,
      "pha": 1002,
      "same": 1003,
      "ven": 1004,
      "wr": 1005,
      "ick": 1006,
      "racy": 1007,
      "units": 1008,
      "accu": 1009,
      "sive": 1010,
      "pop": 1011,
      "ditional": 1012,
      "computing": 1013,
      "computational": 1014,
      "repor": 1015,
      "fore": 1016,
      "predictions": 1017,
      "task": 1018,
      "commend": 1019,
      "produced": 1020,
      "solve": 1021,
      "analy": 1022,
      "provid": 1023,
      "backpropag": 1024,
      "probabil": 1025,
      "hardware": 1026,
      "Se": 1027,
      "Us": 1028,
      "ain": 1029,
      "gover": 1030,
      "ilo": 1031,
      "mit": 1032,
      "nam": 1033,
      "omous": 1034,
      "py": 1035,
      "pen": 1036,
      "sis": 1037,
      "ters": 1038,
      "targe": 1039,
      "inf": 1040,
      "inforce": 1041,
      "cho": 1042,
      "beli": 1043,
      "actions": 1044,
      "agent": 1045,
      "iety": 1046,
      "achie": 1047,
      "humans": 1048,
      "vious": 1049,
      "phys": 1050,
      "vision": 1051,
      "cording": 1052,
      "fair": 1053,
      "various": 1054,
      "feature": 1055,
      "programming": 1056,
      "approaches": 1057,
      "United": 1058,
      "buil": 1059,
      "technology": 1060,
      "after": 1061,
      "behavi": 1062,
      "backpropagation": 1063,
      "No": 1064,
      "Su": 1065,
      "came": 1066,
      "fac": 1067,
      "hip": 1068,
      "ken": 1069,
      "lu": 1070,
      "vie": 1071,
      "attemp": 1072,
      "ances": 1073,
      "recommend": 1074,
      "ense": 1075,
      "ised": 1076,
      "issu": 1077,
      "lection": 1078,
      "users": 1079,
      "proposed": 1080,
      "because": 1081,
      "unsupervised": 1082,
      "acy": 1083,
      "soci": 1084,
      "posi": 1085,
      "previous": 1086,
      "agents": 1087,
      "196": 1088,
      "comb": 1089,
      "open": 1090,
      "integr": 1091,
      "2025": 1092,
      "imple": 1093,
      "representation": 1094,
      "classifi": 1095,
      "ization": 1096,
      "regression": 1097,
      "ired": 1098,
      "jects": 1099,
      "detection": 1100,
      "avail": 1101,
      "Artificial": 1102,
      "person": 1103,
      "accuracy": 1104,
      "reported": 1105,
      "govern": 1106,
      "inforcement": 1107,
      "By": 1108,
      "Dif": 1109,
      "Ex": 1110,
      "Micro": 1111,
      "ben": 1112,
      "bution": 1113,
      "equ": 1114,
      "hist": 1115,
      "ko": 1116,
      "ound": 1117,
      "right": 1118,
      "rules": 1119,
      "tre": 1120,
      "ule": 1121,
      "uation": 1122,
      "utions": 1123,
      "zed": 1124,
      "err": 1125,
      "enco": 1126,
      "andom": 1127,
      "ustr": 1128,
      "stand": 1129,
      "rather": 1130,
      "meas": 1131,
      "2020": 1132,
      "percep": 1133,
      "pecial": 1134,
      "entially": 1135,
      "parame": 1136,
      "inputs": 1137,
      "transl": 1138,
      "nuclear": 1139,
      "relations": 1140,
      "mission": 1141,
      "goals": 1142,
      "architectures": 1143,
      "connection": 1144,
      "concerns": 1145,
      "autonomous": 1146,
      "help": 1147,
      "implement": 1148,
      "CA": 1149,
      "Lear": 1150,
      "cing": 1151,
      "ded": 1152,
      "ec": 1153,
      "fusion": 1154,
      "ging": 1155,
      "hy": 1156,
      "oth": 1157,
      "ose": 1158,
      "test": 1159,
      "uro": 1160,
      "wa": 1161,
      "ws": 1162,
      "wat": 1163,
      "intern": 1164,
      "erial": 1165,
      "associ": 1166,
      "copy": 1167,
      "step": 1168,
      "became": 1169,
      "need": 1170,
      "social": 1171,
      "compression": 1172,
      "improv": 1173,
      "graph": 1174,
      "comes": 1175,
      "create": 1176,
      "created": 1177,
      "take": 1178,
      "intelligent": 1179,
      "efficient": 1180,
      "impact": 1181,
      "contro": 1182,
      "represented": 1183,
      "ized": 1184,
      "outputs": 1185,
      "higher": 1186,
      "types": 1187,
      "those": 1188,
      "Alpha": 1189,
      "engine": 1190,
      "structure": 1191,
      "argued": 1192,
      "rectly": 1193,
      "describ": 1194,
      "available": 1195,
      "Microsoft": 1196,
      "LST": 1197,
      "Ms": 1198,
      "Many": 1199,
      "Open": 1200,
      "RNN": 1201,
      "care": 1202,
      "during": 1203,
      "fut": 1204,
      "fil": 1205,
      "job": 1206,
      "jour": 1207,
      "ler": 1208,
      "mall": 1209,
      "ome": 1210,
      "random": 1211,
      "sto": 1212,
      "samp": 1213,
      "since": 1214,
      "onstr": 1215,
      "ants": 1216,
      "alth": 1217,
      "theore": 1218,
      "especial": 1219,
      "til": 1220,
      "asing": 1221,
      "vector": 1222,
      "proper": 1223,
      "lob": 1224,
      "contain": 1225,
      "simul": 1226,
      "soph": 1227,
      "compe": 1228,
      "lain": 1229,
      "tics": 1230,
      "syn": 1231,
      "2022": 1232,
      "material": 1233,
      "does": 1234,
      "2015": 1235,
      "2016": 1236,
      "even": 1237,
      "eval": 1238,
      "common": 1239,
      "variables": 1240,
      "marke": 1241,
      "Chat": 1242,
      "medical": 1243,
      "risk": 1244,
      "risks": 1245,
      "probability": 1246,
      "health": 1247,
      "volution": 1248,
      "architecture": 1249,
      "designed": 1250,
      "demonstr": 1251,
      "particularly": 1252,
      "priv": 1253,
      "ethical": 1254,
      "dimensional": 1255,
      "statistical": 1256,
      "surve": 1257,
      "leading": 1258,
      "Comp": 1259,
      "symbolic": 1260,
      "distribution": 1261,
      "natural": 1262,
      "writ": 1263,
      "probabilistic": 1264,
      "Learning": 1265,
      "especially": 1266,
      "10": 1267,
      "As": 1268,
      "Le": 1269,
      "cul": 1270,
      "ders": 1271,
      "eas": 1272,
      "gam": 1273,
      "game": 1274,
      "ian": 1275,
      "ls": 1276,
      "tend": 1277,
      "une": 1278,
      "vo": 1279,
      "vid": 1280,
      "wide": 1281,
      "ina": 1282,
      "atory": 1283,
      "orig": 1284,
      "organ": 1285,
      "coun": 1286,
      "ently": 1287,
      "sts": 1288,
      "made": 1289,
      "began": 1290,
      "urther": 1291,
      "ctors": 1292,
      "mem": 1293,
      "concep": 1294,
      "energy": 1295,
      "polic": 1296,
      "divid": 1297,
      "within": 1298,
      "que": 1299,
      "quality": 1300,
      "idden": 1301,
      "imin": 1302,
      "197": 1303,
      "computation": 1304,
      "book": 1305,
      "import": 1306,
      "bias": 1307,
      "produce": 1308,
      "products": 1309,
      "auth": 1310,
      "languages": 1311,
      "prof": 1312,
      "000": 1313,
      "ctively": 1314,
      "science": 1315,
      "1990s": 1316,
      "capable": 1317,
      "biological": 1318,
      "crimin": 1319,
      "frame": 1320,
      "stit": 1321,
      "employ": 1322,
      "fitting": 1323,
      "estimated": 1324,
      "popular": 1325,
      "influ": 1326,
      "fairness": 1327,
      "view": 1328,
      "relationship": 1329,
      "future": 1330,
      "privacy": 1331,
      "origin": 1332,
      "GA": 1333,
      "ML": 1334,
      "Mar": 1335,
      "Mind": 1336,
      "Rese": 1337,
      "Turing": 1338,
      "amo": 1339,
      "bro": 1340,
      "billion": 1341,
      "cate": 1342,
      "fund": 1343,
      "lack": 1344,
      "mid": 1345,
      "mind": 1346,
      "million": 1347,
      "por": 1348,
      "rule": 1349,
      "sho": 1350,
      "small": 1351,
      "tes": 1352,
      "tree": 1353,
      "var": 1354,
      "wid": 1355,
      "inst": 1356,
      "insp": 1357,
      "att": 1358,
      "ators": 1359,
      "ref": 1360,
      "read": 1361,
      "reinforcement": 1362,
      "order": 1363,
      "arial": 1364,
      "leg": 1365,
      "char": 1366,
      "top": 1367,
      "ions": 1368,
      "iter": 1369,
      "maj": 1370,
      "become": 1371,
      "sets": 1372,
      "forward": 1373,
      "ceiv": 1374,
      "suf": 1375,
      "supp": 1376,
      "univ": 1377,
      "abor": 1378,
      "ably": 1379,
      "ared": 1380,
      "nodes": 1381,
      "respe": 1382,
      "sour": 1383,
      "poin": 1384,
      "modeling": 1385,
      "Inte": 1386,
      "dio": 1387,
      "cannot": 1388,
      "lled": 1389,
      "feed": 1390,
      "ighted": 1391,
      "computers": 1392,
      "report": 1393,
      "ference": 1394,
      "domain": 1395,
      "foc": 1396,
      "mbed": 1397,
      "times": 1398,
      "contin": 1399,
      "biases": 1400,
      "DeepMind": 1401,
      "ize": 1402,
      "mining": 1403,
      "centers": 1404,
      "question": 1405,
      "fied": 1406,
      "functions": 1407,
      "valu": 1408,
      "States": 1409,
      "versarial": 1410,
      "detect": 1411,
      "grow": 1412,
      "autom": 1413,
      "successful": 1414,
      "considered": 1415,
      "gene": 1416,
      "planning": 1417,
      "target": 1418,
      "belief": 1419,
      "physical": 1420,
      "history": 1421,
      "ChatGPT": 1422,
      "Research": 1423,
      "amoun": 1424,
      "univers": 1425,
      "\")": 1426,
      "Ano": 1427,
      "Bay": 1428,
      "Ima": 1429,
      "Other": 1430,
      "Some": 1431,
      "ai": 1432,
      "bas": 1433,
      "dy": 1434,
      "further": 1435,
      "gin": 1436,
      "har": 1437,
      "hidden": 1438,
      "late": 1439,
      "sent": 1440,
      "invol": 1441,
      "another": 1442,
      "rey": 1443,
      "als": 1444,
      "ord": 1445,
      "around": 1446,
      "ings": 1447,
      "ists": 1448,
      "stra": 1449,
      "forms": 1450,
      "sump": 1451,
      "ulation": 1452,
      "conom": 1453,
      "context": 1454,
      "activ": 1455,
      "simp": 1456,
      "exist": 1457,
      "clus": 1458,
      "dition": 1459,
      "ately": 1460,
      "mental": 1461,
      "useful": 1462,
      "diction": 1463,
      "acter": 1464,
      "among": 1465,
      "2014": 1466,
      "2017": 1467,
      "stric": 1468,
      "processes": 1469,
      "industr": 1470,
      "representations": 1471,
      "better": 1472,
      "fake": 1473,
      "solutions": 1474,
      "understand": 1475,
      "interpre": 1476,
      "increase": 1477,
      "increasing": 1478,
      "media": 1479,
      "deploy": 1480,
      "labelled": 1481,
      "difficult": 1482,
      "electric": 1483,
      "Diffusion": 1484,
      "internal": 1485,
      "LSTM": 1486,
      "OpenAI": 1487,
      "important": 1488,
      "GAN": 1489,
      "variety": 1490,
      "inspired": 1491,
      "major": 1492,
      "points": 1493,
      "Bayes": 1494,
      "Ac": 1495,
      "ANN": 1496,
      "DA": 1497,
      "DNNs": 1498,
      "Mo": 1499,
      "Tr": 1500,
      "aim": 1501,
      "adem": 1502,
      "br": 1503,
      "ck": 1504,
      "car": 1505,
      "ether": 1506,
      "embed": 1507,
      "fal": 1508,
      "glob": 1509,
      "kind": 1510,
      "mon": 1511,
      "own": 1512,
      "pres": 1513,
      "pass": 1514,
      "sed": 1515,
      "tun": 1516,
      "uations": 1517,
      "win": 1518,
      "ins": 1519,
      "inci": 1520,
      "ering": 1521,
      "once": 1522,
      "ream": 1523,
      "ency": 1524,
      "ories": 1525,
      "thesis": 1526,
      "chall": 1527,
      "provide": 1528,
      "makes": 1529,
      "lying": 1530,
      "see": 1531,
      "seen": 1532,
      "celer": 1533,
      "conf": 1534,
      "consci": 1535,
      "aren": 1536,
      "academ": 1537,
      "acceler": 1538,
      "soc": 1539,
      "compon": 1540,
      "compress": 1541,
      "whether": 1542,
      "did": 1543,
      "dient": 1544,
      "tries": 1545,
      "adversarial": 1546,
      "agree": 1547,
      "195": 1548,
      "plac": 1549,
      "parse": 1550,
      "philo": 1551,
      "strate": 1552,
      "obtain": 1553,
      "implic": 1554,
      "includes": 1555,
      "audio": 1556,
      "fields": 1557,
      "application": 1558,
      "princi": 1559,
      "videos": 1560,
      "technique": 1561,
      "explo": 1562,
      "express": 1563,
      "explain": 1564,
      "China": 1565,
      "meric": 1566,
      "range": 1567,
      "showed": 1568,
      "complexity": 1569,
      "discover": 1570,
      "discovery": 1571,
      "safe": 1572,
      "defined": 1573,
      "dependent": 1574,
      "combin": 1575,
      "parameters": 1576,
      "missions": 1577,
      "hypo": 1578,
      "others": 1579,
      "competi": 1580,
      "categor": 1581,
      "should": 1582,
      "Intellig": 1583,
      "Another": 1584,
      "Bayesian": 1585,
      "Trans": 1586,
      "false": 1587,
      "conscious": 1588,
      "philosoph": 1589,
      "..": 1590,
      "30": 1591,
      "Ad": 1592,
      "Ama": 1593,
      "CNNs": 1594,
      "Hu": 1595,
      "Hint": 1596,
      "If": 1597,
      "MA": 1598,
      "Sim": 1599,
      "bad": 1600,
      "best": 1601,
      "cra": 1602,
      "dr": 1603,
      "dig": 1604,
      "fol": 1605,
      "free": 1606,
      "gative": 1607,
      "ition": 1608,
      "ires": 1609,
      "must": 1610,
      "nor": 1611,
      "ot": 1612,
      "osi": 1613,
      "pur": 1614,
      "ral": 1615,
      "rate": 1616,
      "rights": 1617,
      "righted": 1618,
      "table": 1619,
      "vent": 1620,
      "vices": 1621,
      "war": 1622,
      "year": 1623,
      "zon": 1624,
      "inves": 1625,
      "individ": 1626,
      "thin": 1627,
      "reed": 1628,
      "recurrent": 1629,
      "restric": 1630,
      "enab": 1631,
      "arti": 1632,
      "ross": 1633,
      "user": 1634,
      "cost": 1635,
      "promp": 1636,
      "prote": 1637,
      "ute": 1638,
      "uncertain": 1639,
      "means": 1640,
      "contr": 1641,
      "ility": 1642,
      "get": 1643,
      "size": 1644,
      "comple": 1645,
      "tering": 1646,
      "diag": 1647,
      "directly": 1648,
      "traditional": 1649,
      "pread": 1650,
      "weight": 1651,
      "weights": 1652,
      "atively": 1653,
      "feel": 1654,
      "discrimin": 1655,
      "gram": 1656,
      "gradient": 1657,
      "special": 1658,
      "part": 1659,
      "type": 1660,
      "ferences": 1661,
      "visual": 1662,
      "objects": 1663,
      "abilities": 1664,
      "overfitting": 1665,
      "black": 1666,
      "prediction": 1667,
      "commun": 1668,
      "ishing": 1669,
      "services": 1670,
      "GPUs": 1671,
      "Stable": 1672,
      "increased": 1673,
      "potentially": 1674,
      "1980s": 1675,
      "possib": 1676,
      "group": 1677,
      "automat": 1678,
      "levels": 1679,
      "experience": 1680,
      "observed": 1681,
      "Neural": 1682,
      "Geoff": 1683,
      "playing": 1684,
      "kov": 1685,
      "measure": 1686,
      "copyrighted": 1687,
      "volutional": 1688,
      "memory": 1689,
      "profess": 1690,
      "relationships": 1691,
      "Markov": 1692,
      "character": 1693,
      "source": 1694,
      "continu": 1695,
      "genetic": 1696,
      "Image": 1697,
      "dictionary": 1698,
      "academic": 1699,
      "Intelligence": 1700,
      "Amazon": 1701,
      "Hinton": 1702,
      "individual": 1703,
      "AS": 1704,
      "Alex": 1705,
      "Americ": 1706,
      "CO": 1707,
      "Cop": 1708,
      "CNN": 1709,
      "Com": 1710,
      "DNN": 1711,
      "Euro": 1712,
      "He": 1713,
      "ME": 1714,
      "Rus": 1715,
      "Sy": 1716,
      "cases": 1717,
      "dra": 1718,
      "econom": 1719,
      "emissions": 1720,
      "gate": 1721,
      "gges": 1722,
      "hen": 1723,
      "ible": 1724,
      "ious": 1725,
      "just": 1726,
      "might": 1727,
      "nal": 1728,
      "ou": 1729,
      "pla": 1730,
      "run": 1731,
      "rates": 1732,
      "ata": 1733,
      "ats": 1734,
      "atbo": 1735,
      "ang": 1736,
      "anced": 1737,
      "receiv": 1738,
      "enh": 1739,
      "oral": 1740,
      "arly": 1741,
      "espread": 1742,
      "least": 1743,
      "aster": 1744,
      "chatbo": 1745,
      "coll": 1746,
      "states": 1747,
      "maxim": 1748,
      "rare": 1749,
      "ney": 1750,
      "necess": 1751,
      "next": 1752,
      "separ": 1753,
      "sugges": 1754,
      "local": 1755,
      "cond": 1756,
      "acks": 1757,
      "accur": 1758,
      "according": 1759,
      "sible": 1760,
      "datab": 1761,
      "expe": 1762,
      "extra": 1763,
      "white": 1764,
      "terms": 1765,
      "cles": 1766,
      "pose": 1767,
      "having": 1768,
      "Inter": 1769,
      "manip": 1770,
      "tru": 1771,
      "true": 1772,
      "addition": 1773,
      "web": 1774,
      "ctions": 1775,
      "due": 1776,
      "parti": 1777,
      "2021": 1778,
      "match": 1779,
      "cogn": 1780,
      "down": 1781,
      "focus": 1782,
      "2010s": 1783,
      "lower": 1784,
      "event": 1785,
      "commer": 1786,
      "minim": 1787,
      "fail": 1788,
      "solving": 1789,
      "underlying": 1790,
      "good": 1791,
      "misinformation": 1792,
      "likely": 1793,
      "mark": 1794,
      "service": 1795,
      "news": 1796,
      "experts": 1797,
      "assign": 1798,
      "virt": 1799,
      "scienti": 1800,
      "ensor": 1801,
      "realistic": 1802,
      "performing": 1803,
      "allows": 1804,
      "required": 1805,
      "connected": 1806,
      "effects": 1807,
      "short": 1808,
      "single": 1809,
      "reduce": 1810,
      "reduction": 1811,
      "collection": 1812,
      "statistics": 1813,
      "cloud": 1814,
      "sequence": 1815,
      "LLMs": 1816,
      "released": 1817,
      "situations": 1818,
      "behaviour": 1819,
      "attempt": 1820,
      "recommendations": 1821,
      "classifier": 1822,
      "government": 1823,
      "trees": 1824,
      "error": 1825,
      "perceptr": 1826,
      "CAP": 1827,
      "water": 1828,
      "control": 1829,
      "engineering": 1830,
      "described": 1831,
      "properties": 1832,
      "evalu": 1833,
      "demonstrated": 1834,
      "Comput": 1835,
      "games": 1836,
      "widely": 1837,
      "author": 1838,
      "original": 1839,
      "widespread": 1840,
      "refers": 1841,
      "legal": 1842,
      "values": 1843,
      "dynam": 1844,
      "sumption": 1845,
      "According": 1846,
      "embedding": 1847,
      "follow": 1848,
      "years": 1849,
      "diagno": 1850,
      "Geoffrey": 1851,
      "Europe": 1852,
      ");": 1853,
      "Be": 1854,
      "Data": 1855,
      "En": 1856,
      "Fe": 1857,
      "ID": 1858,
      "Mid": 1859,
      "Ph": 1860,
      "Par": 1861,
      "PUs": 1862,
      "SV": 1863,
      "Sch": 1864,
      "To": 1865,
      "Vari": 1866,
      "We": 1867,
      "ban": 1868,
      "da": 1869,
      "fold": 1870,
      "his": 1871,
      "idat": 1872,
      "ky": 1873,
      "ough": 1874,
      "pi": 1875,
      "pho": 1876,
      "paren": 1877,
      "sc": 1878,
      "ses": 1879,
      "senti": 1880,
      "tro": 1881,
      "uch": 1882,
      "udi": 1883,
      "initi": 1884,
      "ths": 1885,
      "thous": 1886,
      "ero": 1887,
      "erarch": 1888,
      "atten": 1889,
      "anom": 1890,
      "ancial": 1891,
      "reach": 1892,
      "recogn": 1893,
      "ensi": 1894,
      "tives": 1895,
      "ising": 1896,
      "ley": 1897,
      "astic": 1898,
      "aset": 1899,
      "che": 1900,
      "devices": 1901,
      "enter": 1902,
      "prog": 1903,
      "projects": 1904,
      "map": 1905,
      "race": 1906,
      "negative": 1907,
      "moder": 1908,
      "learns": 1909,
      "loss": 1910,
      "mean": 1911,
      "ither": 1912,
      "cons": 1913,
      "conven": 1914,
      "areas": 1915,
      "access": 1916,
      "resour": 1917,
      "sian": 1918,
      "side": 1919,
      "compared": 1920,
      "composi": 1921,
      "datase": 1922,
      "dataset": 1923,
      "2019": 1924,
      "exact": 1925,
      "explic": 1926,
      "verse": 1927,
      "generally": 1928,
      "generating": 1929,
      "quanti": 1930,
      "adap": 1931,
      "adop": 1932,
      "lim": 1933,
      "lier": 1934,
      "neuron": 1935,
      "key": 1936,
      "however": 1937,
      "cies": 1938,
      "coming": 1939,
      "speed": 1940,
      "speak": 1941,
      "rix": 1942,
      "logies": 1943,
      "domin": 1944,
      "2012": 1945,
      "2018": 1946,
      "mbers": 1947,
      "cognitive": 1948,
      "evol": 1949,
      "recognize": 1950,
      "corpor": 1951,
      "classify": 1952,
      "buted": 1953,
      "numer": 1954,
      "fakes": 1955,
      "central": 1956,
      "value": 1957,
      "result": 1958,
      "labels": 1959,
      "Although": 1960,
      "capabilities": 1961,
      "optimisation": 1962,
      "optimization": 1963,
      "factor": 1964,
      "prior": 1965,
      "ethics": 1966,
      "hierarch": 1967,
      "tivity": 1968,
      "response": 1969,
      "fraud": 1970,
      "paper": 1971,
      "robot": 1972,
      "robots": 1973,
      "significantly": 1974,
      "later": 1975,
      "latent": 1976,
      "financial": 1977,
      "provides": 1978,
      "ilot": 1979,
      "achieved": 1980,
      "build": 1981,
      "built": 1982,
      "behavior": 1983,
      "issues": 1984,
      "1960s": 1985,
      "integrated": 1986,
      "benef": 1987,
      "2020s": 1988,
      "perception": 1989,
      "translation": 1990,
      "associated": 1991,
      "improved": 1992,
      "jobs": 1993,
      "journey": 1994,
      "theoretical": 1995,
      "market": 1996,
      "survey": 1997,
      "writing": 1998,
      "tended": 1999,
      "framework": 2000,
      "stitute": 2001,
      "ready": 2002,
      "sufficient": 2003,
      "domains": 2004,
      "amounts": 2005,
      "sentences": 2006,
      "activation": 2007,
      "interpret": 2008,
      "tuned": 2009,
      "component": 2010,
      "drug": 2011,
      "complete": 2012,
      "grammar": 2013,
      "commercial": 2014,
      "Midjourney": 2015,
      "thousand": 2016,
      "anomal": 2017,
      "datasets": 2018,
      "explicit": 2019,
      "16": 2020,
      "70": 2021,
      "Ap": 2022,
      "Act": 2023,
      "ANNs": 2024,
      "Each": 2025,
      "IT": 2026,
      "Jo": 2027,
      "Me": 2028,
      "Mod": 2029,
      "May": 2030,
      "MIT": 2031,
      "On": 2032,
      "Since": 2033,
      "bur": 2034,
      "bod": 2035,
      "done": 2036,
      "emo": 2037,
      "eli": 2038,
      "every": 2039,
      "far": 2040,
      "fine": 2041,
      "fies": 2042,
      "frequ": 2043,
      "hn": 2044,
      "her": 2045,
      "here": 2046,
      "iod": 2047,
      "ker": 2048,
      "lar": 2049,
      "mial": 2050,
      "miti": 2051,
      "much": 2052,
      "oc": 2053,
      "pic": 2054,
      "tz": 2055,
      "tur": 2056,
      "um": 2057,
      "util": 2058,
      "vant": 2059,
      "yp": 2060,
      "yle": 2061,
      "yet": 2062,
      "zing": 2063,
      "inference": 2064,
      "thing": 2065,
      "thus": 2066,
      "thres": 2067,
      "ern": 2068,
      "ery": 2069,
      "ones": 2070,
      "onic": 2071,
      "ann": 2072,
      "recon": 2073,
      "ene": 2074,
      "ensu": 2075,
      "already": 2076,
      "offer": 2077,
      "chastic": 2078,
      "token": 2079,
      "row": 2080,
      "dec": 2081,
      "determ": 2082,
      "usage": 2083,
      "itself": 2084,
      "stated": 2085,
      "stream": 2086,
      "style": 2087,
      "becomes": 2088,
      "lyno": 2089,
      "rac": 2090,
      "raw": 2091,
      "neuro": 2092,
      "second": 2093,
      "sum": 2094,
      "until": 2095,
      "loc": 2096,
      "loo": 2097,
      "convolutional": 2098,
      "consumption": 2099,
      "abl": 2100,
      "area": 2101,
      "ilit": 2102,
      "company": 2103,
      "exis": 2104,
      "period": 2105,
      "point": 2106,
      "polyno": 2107,
      "dia": 2108,
      "laws": 2109,
      "appe": 2110,
      "try": 2111,
      "add": 2112,
      "additional": 2113,
      "limit": 2114,
      "agg": 2115,
      "agreed": 2116,
      "dise": 2117,
      "discus": 2118,
      "display": 2119,
      "cred": 2120,
      "creating": 2121,
      "takes": 2122,
      "box": 2123,
      "boom": 2124,
      "calcul": 2125,
      "matrix": 2126,
      "phone": 2127,
      "object": 2128,
      "effici": 2129,
      "evid": 2130,
      "impos": 2131,
      "predicting": 2132,
      "predictive": 2133,
      "biased": 2134,
      "izing": 2135,
      "establ": 2136,
      "algorithmic": 2137,
      "regard": 2138,
      "solution": 2139,
      "analog": 2140,
      "sometimes": 2141,
      "upon": 2142,
      "requires": 2143,
      "GPU": 2144,
      "osen": 2145,
      "define": 2146,
      "critic": 2147,
      "depth": 2148,
      "assist": 2149,
      "Reg": 2150,
      "differential": 2151,
      "labeled": 2152,
      "structures": 2153,
      "facts": 2154,
      "operations": 2155,
      "effect": 2156,
      "effective": 2157,
      "concerned": 2158,
      "handle": 2159,
      "experiments": 2160,
      "similarity": 2161,
      "thereby": 2162,
      "transformer": 2163,
      "said": 2164,
      "relevant": 2165,
      "approximation": 2166,
      "approximate": 2167,
      "situation": 2168,
      "analyzed": 2169,
      "choose": 2170,
      "Such": 2171,
      "issue": 2172,
      "measures": 2173,
      "ways": 2174,
      "impacts": 2175,
      "stochastic": 2176,
      "synap": 2177,
      "materials": 2178,
      "healthcare": 2179,
      "easy": 2180,
      "countries": 2181,
      "concepts": 2182,
      "broad": 2183,
      "funding": 2184,
      "support": 2185,
      "respect": 2186,
      "focuses": 2187,
      "growth": 2188,
      "universal": 2189,
      "ginning": 2190,
      "harm": 2191,
      "ordin": 2192,
      "existential": 2193,
      "industry": 2194,
      "understanding": 2195,
      "deployed": 2196,
      "DALL": 2197,
      "global": 2198,
      "challen": 2199,
      "society": 2200,
      "safety": 2201,
      "Similar": 2202,
      "craf": 2203,
      "contrast": 2204,
      "profession": 2205,
      "continuous": 2206,
      "Copilot": 2207,
      "accurate": 2208,
      "eventually": 2209,
      "virtual": 2210,
      "Eng": 2211,
      "Schmid": 2212,
      "attention": 2213,
      "modern": 2214,
      "meaning": 2215,
      "body": 2216,
      "threshold": 2217,
      "determine": 2218,
      "polynomial": 2219,
      "efficiency": 2220,
      "18": 2221,
      "35": 2222,
      "AG": 2223,
      "At": 2224,
      "Asi": 2225,
      "CE": 2226,
      "Cy": 2227,
      "Cun": 2228,
      "DE": 2229,
      "EU": 2230,
      "Ener": 2231,
      "Early": 2232,
      "FR": 2233,
      "Face": 2234,
      "Jap": 2235,
      "MM": 2236,
      "Mi": 2237,
      "Mul": 2238,
      "NI": 2239,
      "One": 2240,
      "Pri": 2241,
      "RFR": 2242,
      "Tech": 2243,
      "Typ": 2244,
      "When": 2245,
      "Yann": 2246,
      "bon": 2247,
      "bre": 2248,
      "bor": 2249,
      "bit": 2250,
      "cir": 2251,
      "case": 2252,
      "cross": 2253,
      "either": 2254,
      "ger": 2255,
      "gre": 2256,
      "gend": 2257,
      "gies": 2258,
      "hic": 2259,
      "ier": 2260,
      "je": 2261,
      "jus": 2262,
      "jec": 2263,
      "lish": 2264,
      "mi": 2265,
      "mari": 2266,
      "micro": 2267,
      "ped": 2268,
      "psy": 2269,
      "port": 2270,
      "prac": 2271,
      "ry": 2272,
      "sparse": 2273,
      "sensi": 2274,
      "vin": 2275,
      "xel": 2276,
      "zz": 2277,
      "zation": 2278,
      "indu": 2279,
      "indic": 2280,
      "three": 2281,
      "ond": 2282,
      "atics": 2283,
      "retr": 2284,
      "reli": 2285,
      "reward": 2286,
      "replac": 2287,
      "eder": 2288,
      "lever": 2289,
      "assu": 2290,
      "ched": 2291,
      "ching": 2292,
      "too": 2293,
      "core": 2294,
      "vember": 2295,
      "vehic": 2296,
      "ital": 2297,
      "stanti": 2298,
      "studi": 2299,
      "before": 2300,
      "nel": 2301,
      "sex": 2302,
      "selection": 2303,
      "suit": 2304,
      "modif": 2305,
      "learner": 2306,
      "uni": 2307,
      "mechan": 2308,
      "contri": 2309,
      "ild": 2310,
      "illa": 2311,
      "ressive": 2312,
      "termin": 2313,
      "clust": 2314,
      "Intern": 2315,
      "Institute": 2316,
      "dire": 2317,
      "lap": 2318,
      "law": 2319,
      "mann": 2320,
      "mentally": 2321,
      "generator": 2322,
      "prevent": 2323,
      "preferences": 2324,
      "oltz": 2325,
      "outcomes": 2326,
      "formal": 2327,
      "fect": 2328,
      "aging": 2329,
      "again": 2330,
      "ieval": 2331,
      "disci": 2332,
      "hop": 2333,
      "plant": 2334,
      "huber": 2335,
      "guid": 2336,
      "taken": 2337,
      "bound": 2338,
      "humanity": 2339,
      "via": 2340,
      "amples": 2341,
      "arily": 2342,
      "actors": 2343,
      "actually": 2344,
      "descent": 2345,
      "strong": 2346,
      "developers": 2347,
      "cise": 2348,
      "events": 2349,
      "correct": 2350,
      "correctly": 2351,
      "included": 2352,
      "mini": 2353,
      "informatics": 2354,
      "solved": 2355,
      "cyber": 2356,
      "mises": 2357,
      "inese": 2358,
      "substanti": 2359,
      "rend": 2360,
      "interes": 2361,
      "ception": 2362,
      "defend": 2363,
      "Chinese": 2364,
      "assess": 2365,
      "Recent": 2366,
      "label": 2367,
      "identified": 2368,
      "mathematics": 2369,
      "1991": 2370,
      "General": 2371,
      "considers": 2372,
      "performed": 2373,
      "optimal": 2374,
      "autoenco": 2375,
      "And": 2376,
      "operate": 2377,
      "operating": 2378,
      "students": 2379,
      "shallow": 2380,
      "reducing": 2381,
      "collect": 2382,
      "technologies": 2383,
      "idea": 2384,
      "respond": 2385,
      "responding": 2386,
      "observations": 2387,
      "transformers": 2388,
      "advances": 2389,
      "advanced": 2390,
      "custo": 2391,
      "change": 2392,
      "environmental": 2393,
      "Gemini": 2394,
      "2009": 2395,
      "difficulty": 2396,
      "thought": 2397,
      "named": 2398,
      "achieve": 2399,
      "November": 2400,
      "previously": 2401,
      "integration": 2402,
      "personal": 2403,
      "governments": 2404,
      "Examples": 2405,
      "bench": 2406,
      "parameter": 2407,
      "connections": 2408,
      "implemented": 2409,
      "dedu": 2410,
      "copyright": 2411,
      "graphics": 2412,
      "describes": 2413,
      "journal": 2414,
      "written": 2415,
      "LeCun": 2416,
      "policy": 2417,
      "influence": 2418,
      "testing": 2419,
      "instances": 2420,
      "attack": 2421,
      "respectively": 2422,
      "feedforward": 2423,
      "automation": 2424,
      "automated": 2425,
      "successfully": 2426,
      "aims": 2427,
      "basic": 2428,
      "involves": 2429,
      "clustering": 2430,
      "increasingly": 2431,
      "electricity": 2432,
      "carbon": 2433,
      "kinds": 2434,
      "strategies": 2435,
      "implicit": 2436,
      "expressed": 2437,
      "hypothe": 2438,
      "competitive": 2439,
      "philosophy": 2440,
      "normal": 2441,
      "purpose": 2442,
      "investi": 2443,
      "enabled": 2444,
      "articles": 2445,
      "prompts": 2446,
      "chatbots": 2447,
      "necessary": 2448,
      "separate": 2449,
      "expected": 2450,
      "Internet": 2451,
      "manipulation": 2452,
      "dynamic": 2453,
      "European": 2454,
      "Various": 2455,
      "pixel": 2456,
      "parency": 2457,
      "initial": 2458,
      "resources": 2459,
      "exactly": 2460,
      "limited": 2461,
      "hierarchy": 2462,
      "thousands": 2463,
      "anomaly": 2464,
      "Meta": 2465,
      "Modern": 2466,
      "elimin": 2467,
      "existing": 2468,
      "Schmidhuber": 2469,
      "CEO": 2470,
      "Energy": 2471,
      "Japan": 2472,
      "retrieval": 2473,
      "vehicles": 2474,
      "clusters": 2475,
      "International": 2476,
      "discipl": 2477,
      "100": 2478,
      "50": 2479,
      "60": 2480,
      "AE": 2481,
      "Af": 2482,
      "Alan": 2483,
      "AME": 2484,
      "But": 2485,
      "Boltz": 2486,
      "Cl": 2487,
      "Car": 2488,
      "Clo": 2489,
      "Cri": 2490,
      "EE": 2491,
      "Fu": 2492,
      "Gro": 2493,
      "Gra": 2494,
      "Given": 2495,
      "Is": 2496,
      "IMIT": 2497,
      "Ju": 2498,
      "Jü": 2499,
      "Jan": 2500,
      "Jose": 2501,
      "LP": 2502,
      "Ma": 2503,
      "March": 2504,
      "More": 2505,
      "Nvi": 2506,
      "Phi": 2507,
      "Ro": 2508,
      "RNNs": 2509,
      "Spe": 2510,
      "Sep": 2511,
      "Train": 2512,
      "TAME": 2513,
      "TIMIT": 2514,
      "Using": 2515,
      "VID": 2516,
      "VAE": 2517,
      "Wor": 2518,
      "Zero": 2519,
      "aus": 2520,
      "aid": 2521,
      "ather": 2522,
      "bus": 2523,
      "big": 2524,
      "cas": 2525,
      "cto": 2526,
      "cand": 2527,
      "day": 2528,
      "ey": 2529,
      "ele": 2530,
      "emer": 2531,
      "ffic": 2532,
      "fall": 2533,
      "ged": 2534,
      "gation": 2535,
      "gain": 2536,
      "iver": 2537,
      "jud": 2538,
      "lation": 2539,
      "mble": 2540,
      "nar": 2541,
      "pion": 2542,
      "past": 2543,
      "ric": 2544,
      "rational": 2545,
      "rgen": 2546,
      "sk": 2547,
      "stic": 2548,
      "sens": 2549,
      "sense": 2550,
      "tal": 2551,
      "ture": 2552,
      "tary": 2553,
      "trend": 2554,
      "uc": 2555,
      "uel": 2556,
      "uary": 2557,
      "van": 2558,
      "vul": 2559,
      "vary": 2560,
      "wit": 2561,
      "ying": 2562,
      "you": 2563,
      "{\\": 2564,
      "inno": 2565,
      "incorpor": 2566,
      "inher": 2567,
      "online": 2568,
      "ature": 2569,
      "annu": 2570,
      "rew": 2571,
      "rely": 2572,
      "enor": 2573,
      "enable": 2574,
      "enari": 2575,
      "enables": 2576,
      "enough": 2577,
      "along": 2578,
      "although": 2579,
      "edges": 2580,
      "istr": 2581,
      "lec": 2582,
      "chess": 2583,
      "chec": 2584,
      "decre": 2585,
      "ush": 2586,
      "usually": 2587,
      "star": 2588,
      "becoming": 2589,
      "beginning": 2590,
      "racis": 2591,
      "raised": 2592,
      "never": 2593,
      "nets": 2594,
      "sell": 2595,
      "cell": 2596,
      "mod": 2597,
      "molec": 2598,
      "unit": 2599,
      "unknown": 2600,
      "unless": 2601,
      "unched": 2602,
      "uristic": 2603,
      "tex": 2604,
      "teach": 2605,
      "const": 2606,
      "concl": 2607,
      "conver": 2608,
      "abstra": 2609,
      "aces": 2610,
      "acqu": 2611,
      "active": 2612,
      "accep": 2613,
      "resol": 2614,
      "sound": 2615,
      "exhi": 2616,
      "explan": 2617,
      "exten": 2618,
      "extended": 2619,
      "tered": 2620,
      "clip": 2621,
      "click": 2622,
      "happ": 2623,
      "manif": 2624,
      "ird": 2625,
      "ticle": 2626,
      "premises": 2627,
      "weap": 2628,
      "few": 2629,
      "feas": 2630,
      "deepfakes": 2631,
      "discre": 2632,
      "disting": 2633,
      "hood": 2634,
      "house": 2635,
      "plans": 2636,
      "noted": 2637,
      "notably": 2638,
      "spect": 2639,
      "paral": 2640,
      "parad": 2641,
      "illance": 2642,
      "matic": 2643,
      "sions": 2644,
      "ended": 2645,
      "ferent": 2646,
      "ferred": 2647,
      "four": 2648,
      "founder": 2649,
      "2011": 2650,
      "developing": 2651,
      "developments": 2652,
      "evac": 2653,
      "mulate": 2654,
      "representative": 2655,
      "superintelligence": 2656,
      "cord": 2657,
      "transparency": 2658,
      "ives": 2659,
      "product": 2660,
      "numbers": 2661,
      "serious": 2662,
      "setting": 2663,
      "poses": 2664,
      "informed": 2665,
      "relatively": 2666,
      "spaces": 2667,
      "center": 2668,
      "proving": 2669,
      "subject": 2670,
      "ancements": 2671,
      "multilayer": 2672,
      "fully": 2673,
      "marking": 2674,
      "file": 2675,
      "interest": 2676,
      "version": 2677,
      "defines": 2678,
      "powered": 2679,
      "powerful": 2680,
      "struction": 2681,
      "Reinforcement": 2682,
      "difference": 2683,
      "resulting": 2684,
      "Union": 2685,
      "identification": 2686,
      "1986": 2687,
      "specifically": 2688,
      "allowing": 2689,
      "factors": 2690,
      "argue": 2691,
      "argues": 2692,
      "shown": 2693,
      "statement": 2694,
      "statements": 2695,
      "effectively": 2696,
      "bioinformatics": 2697,
      "environments": 2698,
      "malware": 2699,
      "dimensionality": 2700,
      "whole": 2701,
      "classes": 2702,
      "observation": 2703,
      "close": 2704,
      "finds": 2705,
      "finding": 2706,
      "sequent": 2707,
      "sequences": 2708,
      "improvements": 2709,
      "still": 2710,
      "release": 2711,
      "regulari": 2712,
      "regulatory": 2713,
      "definition": 2714,
      "electronic": 2715,
      "sites": 2716,
      "finite": 2717,
      "nature": 2718,
      "forecas": 2719,
      "analyze": 2720,
      "provided": 2721,
      "providers": 2722,
      "probabilities": 2723,
      "Search": 2724,
      "targets": 2725,
      "achieving": 2726,
      "Super": 2727,
      "facial": 2728,
      "attempts": 2729,
      "recommendation": 2730,
      "position": 2731,
      "positive": 2732,
      "classified": 2733,
      "Different": 2734,
      "equations": 2735,
      "errors": 2736,
      "implementation": 2737,
      "association": 2738,
      "sample": 2739,
      "samples": 2740,
      "sampling": 2741,
      "evaluation": 2742,
      "marketing": 2743,
      "surveillance": 2744,
      "voice": 2745,
      "concept": 2746,
      "policies": 2747,
      "authors": 2748,
      "frameworks": 2749,
      "billions": 2750,
      "suffer": 2751,
      "feedback": 2752,
      "amount": 2753,
      "basis": 2754,
      "GANs": 2755,
      "Most": 2756,
      "aimed": 2757,
      "months": 2758,
      "preser": 2759,
      "compressor": 2760,
      "strategy": 2761,
      "obtaining": 2762,
      "implications": 2763,
      "combined": 2764,
      "hypothesis": 2765,
      "categories": 2766,
      "consciousness": 2767,
      "digits": 2768,
      "thinking": 2769,
      "restricted": 2770,
      "protein": 2771,
      "possibly": 2772,
      "possibility": 2773,
      "Russell": 2774,
      "Syste": 2775,
      "collabor": 2776,
      "database": 2777,
      "partial": 2778,
      "scientists": 2779,
      "perceptron": 2780,
      "days": 2781,
      "scenari": 2782,
      "recognise": 2783,
      "consist": 2784,
      "adopted": 2785,
      "speaker": 2786,
      "dominant": 2787,
      "evolution": 2788,
      "numerical": 2789,
      "benefit": 2790,
      "interpretation": 2791,
      "John": 2792,
      "burden": 2793,
      "frequently": 2794,
      "occur": 2795,
      "utility": 2796,
      "address": 2797,
      "limitations": 2798,
      "aggreg": 2799,
      "evidence": 2800,
      "established": 2801,
      "analogous": 2802,
      "criticism": 2803,
      "synapses": 2804,
      "challenges": 2805,
      "English": 2806,
      "Multi": 2807,
      "NIST": 2808,
      "Typically": 2809,
      "circu": 2810,
      "gender": 2811,
      "psycho": 2812,
      "against": 2813,
      "customer": 2814,
      "Boltzmann": 2815,
      "July": 2816,
      "Jürgen": 2817,
      "Joseph": 2818,
      "Nvidia": 2819,
      "TAMER": 2820,
      "candidat": 2821,
      "pione": 2822,
      "vulner": 2823,
      "enormous": 2824,
      "racist": 2825,
      "distingu": 2826,
      "\":": 2827,
      "\"),": 2828,
      "\").": 2829,
      "(\"": 2830,
      ".)": 2831,
      "3D": 2832,
      "48": 2833,
      "BS": 2834,
      "Big": 2835,
      "Bri": 2836,
      "CS": 2837,
      "Can": 2838,
      "Do": 2839,
      "Dan": 2840,
      "During": 2841,
      "Dream": 2842,
      "ET": 2843,
      "Fra": 2844,
      "Fran": 2845,
      "Glob": 2846,
      "Gaus": 2847,
      "Hor": 2848,
      "High": 2849,
      "IA": 2850,
      "IB": 2851,
      "IP": 2852,
      "June": 2853,
      "La": 2854,
      "Large": 2855,
      "MP": 2856,
      "Mc": 2857,
      "Man": 2858,
      "MNIST": 2859,
      "Nu": 2860,
      "Nations": 2861,
      "NVID": 2862,
      "Octo": 2863,
      "Pa": 2864,
      "Pho": 2865,
      "Res": 2866,
      "Run": 2867,
      "Rule": 2868,
      "Sh": 2869,
      "Sam": 2870,
      "Soft": 2871,
      "Sparse": 2872,
      "Tensor": 2873,
      "TPUs": 2874,
      "Whi": 2875,
      "XAI": 2876,
      "You": 2877,
      "ade": 2878,
      "ams": 2879,
      "adi": 2880,
      "aver": 2881,
      "away": 2882,
      "aMA": 2883,
      "bar": 2884,
      "bran": 2885,
      "cat": 2886,
      "cle": 2887,
      "cking": 2888,
      "cats": 2889,
      "dri": 2890,
      "fli": 2891,
      "flow": 2892,
      "fast": 2893,
      "faster": 2894,
      "gence": 2895,
      "gree": 2896,
      "hund": 2897,
      "ib": 2898,
      "ied": 2899,
      "ily": 2900,
      "ians": 2901,
      "ification": 2902,
      "ients": 2903,
      "jo": 2904,
      "kers": 2905,
      "kush": 2906,
      "land": 2907,
      "last": 2908,
      "mor": 2909,
      "mus": 2910,
      "moral": 2911,
      "milit": 2912,
      "oid": 2913,
      "pal": 2914,
      "pie": 2915,
      "player": 2916,
      "pite": 2917,
      "pace": 2918,
      "pick": 2919,
      "plain": 2920,
      "ron": 2921,
      "rase": 2922,
      "sal": 2923,
      "smar": 2924,
      "swar": 2925,
      "ton": 2926,
      "tens": 2927,
      "tensor": 2928,
      "uti": 2929,
      "uzz": 2930,
      "vation": 2931,
      "vest": 2932,
      "vast": 2933,
      "wan": 2934,
      "xed": 2935,
      "xic": 2936,
      "zes": 2937,
      "zip": 2938,
      "||": 2939,
      "iness": 2940,
      "intr": 2941,
      "instit": 2942,
      "incomplete": 2943,
      "inery": 2944,
      "thre": 2945,
      "thma": 2946,
      "things": 2947,
      "third": 2948,
      "onentially": 2949,
      "ati": 2950,
      "anno": 2951,
      "ancies": 2952,
      "recent": 2953,
      "retur": 2954,
      "encies": 2955,
      "almost": 2956,
      "alities": 2957,
      "alpha": 2958,
      "ora": 2959,
      "thetic": 2960,
      "theories": 2961,
      "ars": 2962,
      "aring": 2963,
      "esti": 2964,
      "ison": 2965,
      "isition": 2966,
      "let": 2967,
      "lets": 2968,
      "ash": 2969,
      "asion": 2970,
      "asthma": 2971,
      "champ": 2972,
      "chance": 2973,
      "chain": 2974,
      "chosen": 2975,
      "tos": 2976,
      "tood": 2977,
      "toward": 2978,
      "toxic": 2979,
      "roo": 2980,
      "roid": 2981,
      "anda": 2982,
      "degree": 2983,
      "code": 2984,
      "coding": 2985,
      "vectors": 2986,
      "iting": 2987,
      "itari": 2988,
      "proposi": 2989,
      "sta": 2990,
      "stor": 2991,
      "stories": 2992,
      "mail": 2993,
      "beat": 2994,
      "below": 2995,
      "belong": 2996,
      "mploy": 2997,
      "select": 2998,
      "sector": 2999,
      "fortable": 3000,
      "ceed": 3001,
      "ceive": 3002,
      "moved": 3003,
      "unced": 3004,
      "unseen": 3005,
      "look": 3006,
      "losoph": 3007,
      "uris": 3008,
      "condi": 3009,
      "consis": 3010,
      "convin": 3011,
      "Three": 3012,
      "abs": 3013,
      "notions": 3014,
      "novel": 3015,
      "noise": 3016,
      "across": 3017,
      "someth": 3018,
      "compar": 3019,
      "exam": 3020,
      "extre": 3021,
      "exec": 3022,
      "why": 3023,
      "deliver": 3024,
      "workers": 3025,
      "poli": 3026,
      "tract": 3027,
      "tracking": 3028,
      "launched": 3029,
      "cancer": 3030,
      "tric": 3031,
      "trick": 3032,
      "lling": 3033,
      "llation": 3034,
      "ades": 3035,
      "adjus": 3036,
      "preval": 3037,
      "weather": 3038,
      "outlier": 3039,
      "stead": 3040,
      "fective": 3041,
      "entities": 3042,
      "searches": 3043,
      "ples": 3044,
      "compute": 3045,
      "computations": 3046,
      "comfortable": 3047,
      "creative": 3048,
      "board": 3049,
      "ried": 3050,
      "matter": 3051,
      "acting": 3052,
      "desired": 3053,
      "destro": 3054,
      "phones": 3055,
      "foot": 3056,
      "2010": 3057,
      "cognition": 3058,
      "objec": 3059,
      "inding": 3060,
      "agement": 3061,
      "overcome": 3062,
      "ards": 3063,
      "omen": 3064,
      "predicted": 3065,
      "recognizing": 3066,
      "contest": 3067,
      "approval": 3068,
      "appropri": 3069,
      "earlier": 3070,
      "intended": 3071,
      "commons": 3072,
      "commonly": 3073,
      "representing": 3074,
      "correl": 3075,
      "transfer": 3076,
      "production": 3077,
      "producing": 3078,
      "ministr": 3079,
      "face": 3080,
      "variate": 3081,
      "variable": 3082,
      "spam": 3083,
      "patients": 3084,
      "ips": 3085,
      "firm": 3086,
      "firms": 3087,
      "print": 3088,
      "valid": 3089,
      "interaction": 3090,
      "versity": 3091,
      "exponentially": 3092,
      "mostly": 3093,
      "crime": 3094,
      "critical": 3095,
      "expert": 3096,
      "Unlike": 3097,
      "Unsupervised": 3098,
      "caused": 3099,
      "generalisation": 3100,
      "held": 3101,
      "Algorith": 3102,
      "capac": 3103,
      "allowed": 3104,
      "raints": 3105,
      "requirements": 3106,
      "avoid": 3107,
      "ground": 3108,
      "Anal": 3109,
      "Machines": 3110,
      "founded": 3111,
      "foundation": 3112,
      "propaganda": 3113,
      "beings": 3114,
      "colle": 3115,
      "experimental": 3116,
      "considering": 3117,
      "nonlinear": 3118,
      "surro": 3119,
      "surpass": 3120,
      "similarly": 3121,
      "therefore": 3122,
      "clock": 3123,
      "pping": 3124,
      "grid": 3125,
      "changing": 3126,
      "robotics": 3127,
      "describe": 3128,
      "LLaMA": 3129,
      "Netfli": 3130,
      "2000s": 3131,
      "approximately": 3132,
      "difficulties": 3133,
      "regulation": 3134,
      "publicly": 3135,
      "publications": 3136,
      "signals": 3137,
      "electrical": 3138,
      "longer": 3139,
      "estimation": 3140,
      "words": 3141,
      "distributed": 3142,
      "Conven": 3143,
      "finance": 3144,
      "holders": 3145,
      "popul": 3146,
      "Several": 3147,
      "choices": 3148,
      "faces": 3149,
      "opening": 3150,
      "classifiers": 3151,
      "equal": 3152,
      "histor": 3153,
      "standard": 3154,
      "implementations": 3155,
      "CAA": 3156,
      "wave": 3157,
      "watching": 3158,
      "improving": 3159,
      "improves": 3160,
      "efficiently": 3161,
      "AlphaGo": 3162,
      "engineers": 3163,
      "filters": 3164,
      "theorem": 3165,
      "property": 3166,
      "contains": 3167,
      "simulate": 3168,
      "synthetic": 3169,
      "gaming": 3170,
      "unemploy": 3171,
      "voices": 3172,
      "1970s": 3173,
      "employed": 3174,
      "employment": 3175,
      "influential": 3176,
      "smaller": 3177,
      "tests": 3178,
      "width": 3179,
      "instance": 3180,
      "topics": 3181,
      "detecting": 3182,
      "growing": 3183,
      "universities": 3184,
      "simple": 3185,
      "cluster": 3186,
      "deployment": 3187,
      "globally": 3188,
      "passed": 3189,
      "winning": 3190,
      "challeng": 3191,
      "config": 3192,
      "socie": 3193,
      "agreement": 3194,
      "1950s": 3195,
      "placed": 3196,
      "principal": 3197,
      "principles": 3198,
      "discovered": 3199,
      "discovering": 3200,
      "competition": 3201,
      "category": 3202,
      "Transform": 3203,
      "...": 3204,
      "enabling": 3205,
      "protection": 3206,
      "uncertainty": 3207,
      "discriminator": 3208,
      "specialized": 3209,
      "communic": 3210,
      "groups": 3211,
      "automatically": 3212,
      "measured": 3213,
      "characteristic": 3214,
      "ASR": 3215,
      "American": 3216,
      "Americans": 3217,
      "COMP": 3218,
      "Commission": 3219,
      "economics": 3220,
      "place": 3221,
      "received": 3222,
      "maximize": 3223,
      "suggested": 3224,
      "databases": 3225,
      "extract": 3226,
      "downstream": 3227,
      "assignment": 3228,
      "perceptrons": 3229,
      "watermarking": 3230,
      "evaluate": 3231,
      "evaluated": 3232,
      "Computing": 3233,
      "authoritari": 3234,
      "diagnosis": 3235,
      "Because": 3236,
      "SVM": 3237,
      "photo": 3238,
      "progress": 3239,
      "progressive": 3240,
      "maps": 3241,
      "conventional": 3242,
      "composition": 3243,
      "adaptive": 3244,
      "sufficiently": 3245,
      "Apple": 3246,
      "emotion": 3247,
      "kernel": 3248,
      "reconstruction": 3249,
      "ensure": 3250,
      "looking": 3251,
      "diseases": 3252,
      "discussions": 3253,
      "impossible": 3254,
      "assistants": 3255,
      "Regul": 3256,
      "harmful": 3257,
      "Similarly": 3258,
      "crafted": 3259,
      "professionals": 3260,
      "AGI": 3261,
      "Facebook": 3262,
      "Mich": 3263,
      "Prize": 3264,
      "jective": 3265,
      "practical": 3266,
      "sexual": 3267,
      "suitable": 3268,
      "interesting": 3269,
      "Andrew": 3270,
      "collected": 3271,
      "respondents": 3272,
      "benchmark": 3273,
      "journalism": 3274,
      "pixels": 3275,
      "Critics": 3276,
      "Fukush": 3277,
      "January": 3278,
      "Philosoph": 3279,
      "Robo": 3280,
      "Training": 3281,
      "VAEs": 3282,
      "business": 3283,
      "falls": 3284,
      "narrow": 3285,
      "sensors": 3286,
      "varying": 3287,
      "started": 3288,
      "molecules": 3289,
      "constraints": 3290,
      "acquisition": 3291,
      "explanation": 3292,
      "extensive": 3293,
      "happen": 3294,
      "manifold": 3295,
      "feasible": 3296,
      "paralle": 3297,
      "paradig": 3298,
      "Supervised": 3299,
      "Systems": 3300,
      "scenarios": 3301,
      "distinguish": 3302,
      "BSDE": 3303,
      "Global": 3304,
      "Gaussian": 3305,
      "NVIDIA": 3306,
      "October": 3307,
      "Photos": 3308,
      "While": 3309,
      "branch": 3310,
      "hundred": 3311,
      "joint": 3312,
      "music": 3313,
      "military": 3314,
      "plainable": 3315,
      "swarm": 3316,
      "utili": 3317,
      "institutions": 3318,
      "threat": 3319,
      "announced": 3320,
      "return": 3321,
      "estimat": 3322,
      "conditions": 3323,
      "something": 3324,
      "extreme": 3325,
      "footprint": 3326,
      "objectives": 3327,
      "commonsense": 3328,
      "Netflix": 3329,
      "unemployment": 3330,
      "COMPAS": 3331,
      "authoritarian": 3332,
      "Fukushima": 3333,
      "%)": 3334,
      "%.": 3335,
      "11": 3336,
      "15": 3337,
      "21": 3338,
      "22": 3339,
      "28": 3340,
      "300": 3341,
      "41": 3342,
      "43": 3343,
      "57": 3344,
      "800": 3345,
      "Ato": 3346,
      "All": 3347,
      "Apr": 3348,
      "Amari": 3349,
      "Bi": 3350,
      "Bo": 3351,
      "Bing": 3352,
      "CL": 3353,
      "Cur": 3354,
      "Cla": 3355,
      "CPUs": 3356,
      "DD": 3357,
      "DP": 3358,
      "Des": 3359,
      "Dis": 3360,
      "Dig": 3361,
      "Dav": 3362,
      "EC": 3363,
      "Econom": 3364,
      "Fir": 3365,
      "From": 3366,
      "Fund": 3367,
      "Fold": 3368,
      "Feder": 3369,
      "GT": 3370,
      "Gu": 3371,
      "Gen": 3372,
      "GMM": 3373,
      "Hop": 3374,
      "HMM": 3375,
      "Ip": 3376,
      "ILP": 3377,
      "Jour": 3378,
      "JEE": 3379,
      "Kuni": 3380,
      "KDD": 3381,
      "Lan": 3382,
      "Labs": 3383,
      "Mon": 3384,
      "Med": 3385,
      "Mins": 3386,
      "Ng": 3387,
      "National": 3388,
      "NJEE": 3389,
      "Or": 3390,
      "Offic": 3391,
      "Pe": 3392,
      "Pit": 3393,
      "Plat": 3394,
      "Qw": 3395,
      "RI": 3396,
      "RL": 3397,
      "RO": 3398,
      "Rep": 3399,
      "Rosen": 3400,
      "Sha": 3401,
      "Sir": 3402,
      "Sci": 3403,
      "TP": 3404,
      "Tu": 3405,
      "UK": 3406,
      "Uni": 3407,
      "Ve": 3408,
      "Wil": 3409,
      "ax": 3410,
      "aco": 3411,
      "aud": 3412,
      "aks": 3413,
      "aware": 3414,
      "amentally": 3415,
      "babil": 3416,
      "cti": 3417,
      "cro": 3418,
      "cil": 3419,
      "ctivity": 3420,
      "dens": 3421,
      "dustr": 3422,
      "ek": 3423,
      "eve": 3424,
      "eight": 3425,
      "election": 3426,
      "eclip": 3427,
      "emulate": 3428,
      "email": 3429,
      "ft": 3430,
      "fly": 3431,
      "flo": 3432,
      "fres": 3433,
      "five": 3434,
      "fam": 3435,
      "feder": 3436,
      "fash": 3437,
      "gth": 3438,
      "gun": 3439,
      "gment": 3440,
      "gates": 3441,
      "gives": 3442,
      "hall": 3443,
      "io": 3444,
      "ior": 3445,
      "iar": 3446,
      "idel": 3447,
      "iable": 3448,
      "junction": 3449,
      "kin": 3450,
      "kill": 3451,
      "lh": 3452,
      "lab": 3453,
      "light": 3454,
      "liter": 3455,
      "labor": 3456,
      "mas": 3457,
      "mand": 3458,
      "mic": 3459,
      "mut": 3460,
      "mers": 3461,
      "mical": 3462,
      "mim": 3463,
      "mone": 3464,
      "master": 3465,
      "na": 3466,
      "nth": 3467,
      "ners": 3468,
      "name": 3469,
      "ov": 3470,
      "oing": 3471,
      "ology": 3472,
      "otypes": 3473,
      "ping": 3474,
      "pus": 3475,
      "phas": 3476,
      "present": 3477,
      "ror": 3478,
      "ras": 3479,
      "rul": 3480,
      "son": 3481,
      "sco": 3482,
      "smo": 3483,
      "sha": 3484,
      "send": 3485,
      "slow": 3486,
      "scor": 3487,
      "site": 3488,
      "swit": 3489,
      "tin": 3490,
      "tle": 3491,
      "tled": 3492,
      "tures": 3493,
      "tons": 3494,
      "uart": 3495,
      "won": 3496,
      "wro": 3497,
      "wise": 3498,
      "women": 3499,
      "yield": 3500,
      "yond": 3501,
      "zer": 3502,
      "}}": 3503,
      "ink": 3504,
      "inch": 3505,
      "ination": 3506,
      "inting": 3507,
      "independent": 3508,
      "inverse": 3509,
      "invest": 3510,
      "intract": 3511,
      "thy": 3512,
      "thur": 3513,
      "ered": 3514,
      "ony": 3515,
      "atly": 3516,
      "anim": 3517,
      "annot": 3518,
      "rese": 3519,
      "repe": 3520,
      "react": 3521,
      "review": 3522,
      "reverse": 3523,
      "recise": 3524,
      "recti": 3525,
      "enced": 3526,
      "ensive": 3527,
      "aling": 3528,
      "align": 3529,
      "alone": 3530,
      "always": 3531,
      "orge": 3532,
      "oratory": 3533,
      "arra": 3534,
      "article": 3535,
      "ests": 3536,
      "tice": 3537,
      "tish": 3538,
      "tising": 3539,
      "assi": 3540,
      "aspe": 3541,
      "assump": 3542,
      "chips": 3543,
      "andon": 3544,
      "dex": 3545,
      "defe": 3546,
      "devi": 3547,
      "decentral": 3548,
      "determin": 3549,
      "deception": 3550,
      "dealing": 3551,
      "usible": 3552,
      "cour": 3553,
      "cover": 3554,
      "costs": 3555,
      "coordin": 3556,
      "vec": 3557,
      "ites": 3558,
      "proof": 3559,
      "promo": 3560,
      "ster": 3561,
      "stable": 3562,
      "stren": 3563,
      "start": 3564,
      "max": 3565,
      "begun": 3566,
      "uts": 3567,
      "uters": 3568,
      "rael": 3569,
      "neu": 3570,
      "seman": 3571,
      "sectors": 3572,
      "segment": 3573,
      "cele": 3574,
      "sue": 3575,
      "sure": 3576,
      "sued": 3577,
      "mov": 3578,
      "move": 3579,
      "motion": 3580,
      "mobi": 3581,
      "moves": 3582,
      "motiv": 3583,
      "unlabelled": 3584,
      "uncil": 3585,
      "loch": 3586,
      "load": 3587,
      "urs": 3588,
      "ury": 3589,
      "urations": 3590,
      "mework": 3591,
      "members": 3592,
      "erstood": 3593,
      "ulate": 3594,
      "tember": 3595,
      "consu": 3596,
      "convers": 3597,
      "construct": 3598,
      "constra": 3599,
      "conjunction": 3600,
      "That": 3601,
      "abuse": 3602,
      "abandon": 3603,
      "acc": 3604,
      "acti": 3605,
      "accord": 3606,
      "resid": 3607,
      "sized": 3608,
      "sizes": 3609,
      "sos": 3610,
      "compos": 3611,
      "compens": 3612,
      "fiction": 3613,
      "date": 3614,
      "2000": 3615,
      "2035": 3616,
      "expl": 3617,
      "extern": 3618,
      "exists": 3619,
      "perceive": 3620,
      "worked": 3621,
      "cla": 3622,
      "clar": 3623,
      "claimed": 3624,
      "poll": 3625,
      "modelling": 3626,
      "Indu": 3627,
      "Instead": 3628,
      "Industr": 3629,
      "verification": 3630,
      "vertising": 3631,
      "track": 3632,
      "lace": 3633,
      "launder": 3634,
      "manag": 3635,
      "manner": 3636,
      "generates": 3637,
      "Their": 3638,
      "irs": 3639,
      "iring": 3640,
      "tically": 3641,
      "tron": 3642,
      "trust": 3643,
      "llers": 3644,
      "llars": 3645,
      "qual": 3646,
      "iden": 3647,
      "ively": 3648,
      "symp": 3649,
      "adjust": 3650,
      "adhere": 3651,
      "advertising": 3652,
      "preced": 3653,
      "precise": 3654,
      "lie": 3655,
      "lies": 3656,
      "welf": 3657,
      "weak": 3658,
      "outcome": 3659,
      "outside": 3660,
      "outperformed": 3661,
      "steadi": 3662,
      "stellation": 3663,
      "gorill": 3664,
      "gorilla": 3665,
      "undes": 3666,
      "understood": 3667,
      "deepfake": 3668,
      "imit": 3669,
      "imate": 3670,
      "disinformation": 3671,
      "displaced": 3672,
      "entity": 3673,
      "uded": 3674,
      "hope": 3675,
      "hours": 3676,
      "grams": 3677,
      "gradu": 3678,
      "guess": 3679,
      "guage": 3680,
      "opposed": 3681,
      "specul": 3682,
      "creen": 3683,
      "creates": 3684,
      "taking": 3685,
      "riend": 3686,
      "parts": 3687,
      "answer": 3688,
      "replace": 3689,
      "2026": 3690,
      "ously": 3691,
      "illusion": 3692,
      "dou": 3693,
      "dollars": 3694,
      "destru": 3695,
      "phen": 3696,
      "phic": 3697,
      "fool": 3698,
      "ambig": 3699,
      "visory": 3700,
      "nowledge": 3701,
      "overall": 3702,
      "blind": 3703,
      "blatt": 3704,
      "knows": 3705,
      "eved": 3706,
      "omy": 3707,
      "predicts": 3708,
      "antages": 3709,
      "lest": 3710,
      "recogniz": 3711,
      "timate": 3712,
      "gest": 3713,
      "Good": 3714,
      "superhuman": 3715,
      "tainment": 3716,
      "corresponding": 3717,
      "corpus": 3718,
      "transmit": 3719,
      "classifies": 3720,
      "deriv": 3721,
      "ival": 3722,
      "Deepfakes": 3723,
      "izen": 3724,
      "serve": 3725,
      "series": 3726,
      "ongoing": 3727,
      "regular": 3728,
      "variants": 3729,
      "etc": 3730,
      "relative": 3731,
      "anything": 3732,
      "somewhat": 3733,
      "curity": 3734,
      "mistaken": 3735,
      "ups": 3736,
      "layered": 3737,
      "request": 3738,
      "century": 3739,
      "highl": 3740,
      "highly": 3741,
      "proved": 3742,
      "subfield": 3743,
      "submit": 3744,
      "subsets": 3745,
      "subsequent": 3746,
      "multip": 3747,
      "multivariate": 3748,
      "programmed": 3749,
      "full": 3750,
      "marks": 3751,
      "publish": 3752,
      "fixed": 3753,
      "ipped": 3754,
      "newly": 3755,
      "prun": 3756,
      "validat": 3757,
      "interacting": 3758,
      "Stan": 3759,
      "Star": 3760,
      "Stuart": 3761,
      "versions": 3762,
      "defense": 3763,
      "increases": 3764,
      "Chinch": 3765,
      "backward": 3766,
      "background": 3767,
      "medic": 3768,
      "Formal": 3769,
      "rise": 3770,
      "Recurrent": 3771,
      "Reuters": 3772,
      "jected": 3773,
      "throughout": 3774,
      "specified": 3775,
      "heuristic": 3776,
      "items": 3777,
      "mathematically": 3778,
      "1990": 3779,
      "1995": 3780,
      "1998": 3781,
      "mention": 3782,
      "1982": 3783,
      "1985": 3784,
      "1988": 3785,
      "engines": 3786,
      "factory": 3787,
      "ranging": 3788,
      "arguments": 3789,
      "demand": 3790,
      "apply": 3791,
      "Machinery": 3792,
      "operates": 3793,
      "biology": 3794,
      "introduction": 3795,
      "handwritten": 3796,
      "performs": 3797,
      "hiko": 3798,
      "male": 3799,
      "color": 3800,
      "collap": 3801,
      "Prolog": 3802,
      "Probabil": 3803,
      "temporal": 3804,
      "responsible": 3805,
      "whose": 3806,
      "transformations": 3807,
      "Arthur": 3808,
      "cru": 3809,
      "leaders": 3810,
      "advantages": 3811,
      "Council": 3812,
      "New": 3813,
      "paths": 3814,
      "painting": 3815,
      "pairs": 3816,
      "chances": 3817,
      "robotic": 3818,
      "sequently": 3819,
      "descrip": 3820,
      "currently": 3821,
      "George": 3822,
      "2006": 3823,
      "symbols": 3824,
      "approximator": 3825,
      "regulating": 3826,
      "depending": 3827,
      "dependencies": 3828,
      "identifying": 3829,
      "estimate": 3830,
      "Convolutional": 3831,
      "Constellation": 3832,
      "autonomy": 3833,
      "holds": 3834,
      "wrong": 3835,
      "believe": 3836,
      "believed": 3837,
      "physics": 3838,
      "building": 3839,
      "Sub": 3840,
      "facilit": 3841,
      "attempting": 3842,
      "ensemble": 3843,
      "issued": 3844,
      "combine": 3845,
      "Explainable": 3846,
      "equival": 3847,
      "equipped": 3848,
      "treat": 3849,
      "erry": 3850,
      "encode": 3851,
      "encoding": 3852,
      "translated": 3853,
      "connectionist": 3854,
      "autonomously": 3855,
      "international": 3856,
      "steps": 3857,
      "needs": 3858,
      "AlphaFold": 3859,
      "structured": 3860,
      "LSTMs": 3861,
      "filtering": 3862,
      "store": 3863,
      "containing": 3864,
      "simulated": 3865,
      "synthesis": 3866,
      "demonstrate": 3867,
      "Companies": 3868,
      "easier": 3869,
      "easily": 3870,
      "unex": 3871,
      "counter": 3872,
      "policing": 3873,
      "divided": 3874,
      "1971": 3875,
      "MLP": 3876,
      "millions": 3877,
      "attacks": 3878,
      "topic": 3879,
      "suppor": 3880,
      "sources": 3881,
      "focused": 3882,
      "focusing": 3883,
      "beliefs": 3884,
      "Researchers": 3885,
      "harms": 3886,
      "sentence": 3887,
      "involve": 3888,
      "involved": 3889,
      "activity": 3890,
      "simply": 3891,
      "ditionally": 3892,
      "industrial": 3893,
      "majority": 3894,
      "confid": 3895,
      "conflic": 3896,
      "accelerate": 3897,
      "accelerator": 3898,
      "components": 3899,
      "obtained": 3900,
      "principle": 3901,
      "explosion": 3902,
      "explored": 3903,
      "combination": 3904,
      "Translate": 3905,
      "Huang": 3906,
      "MAT": 3907,
      "freely": 3908,
      "restrictions": 3909,
      "contras": 3910,
      "discriminative": 3911,
      "community": 3912,
      "communities": 3913,
      "automatic": 3914,
      "professions": 3915,
      "ImageNet": 3916,
      "individuals": 3917,
      "AlexNet": 3918,
      "Russian": 3919,
      "receives": 3920,
      "enhancements": 3921,
      "chatbot": 3922,
      "collar": 3923,
      "rarely": 3924,
      "necessarily": 3925,
      "suggests": 3926,
      "expect": 3927,
      "manipulate": 3928,
      "truth": 3929,
      "websites": 3930,
      "failed": 3931,
      "assigns": 3932,
      "scientific": 3933,
      "Computational": 3934,
      "dynamics": 3935,
      "follows": 3936,
      "followed": 3937,
      "Feature": 3938,
      "PhD": 3939,
      "Park": 3940,
      "SVMs": 3941,
      "Web": 3942,
      "sentiment": 3943,
      "sentience": 3944,
      "chemical": 3945,
      "entered": 3946,
      "entertainment": 3947,
      "compositional": 3948,
      "corpora": 3949,
      "classifying": 3950,
      "benefits": 3951,
      "70B": 3952,
      "larger": 3953,
      "largest": 3954,
      "mitigate": 3955,
      "pictures": 3956,
      "reconstruct": 3957,
      "offering": 3958,
      "decades": 3959,
      "summari": 3960,
      "disease": 3961,
      "displaystyle": 3962,
      "credit": 3963,
      "calculated": 3964,
      "imposed": 3965,
      "regarding": 3966,
      "ordinary": 3967,
      "professional": 3968,
      "Asimov": 3969,
      "Techno": 3970,
      "break": 3971,
      "sensitive": 3972,
      "sensitivity": 3973,
      "inductive": 3974,
      "replacing": 3975,
      "leverage": 3976,
      "assume": 3977,
      "studied": 3978,
      "studies": 3979,
      "modify": 3980,
      "mechanism": 3981,
      "contributed": 3982,
      "direction": 3983,
      "directed": 3984,
      "guided": 3985,
      "guidance": 3986,
      "substantial": 3987,
      "substantially": 3988,
      "defendants": 3989,
      "autoencoder": 3990,
      "autoencoders": 3991,
      "deduce": 3992,
      "attackers": 3993,
      "implicitly": 3994,
      "hypothesized": 3995,
      "investigate": 3996,
      "discipline": 3997,
      "disciplines": 3998,
      "After": 3999,
      "Classi": 4000,
      "Grok": 4001,
      "Graph": 4002,
      "Israel": 4003,
      "Math": 4004,
      "September": 4005,
      "elements": 4006,
      "emerging": 4007,
      "ski": 4008,
      "trendline": 4009,
      "vanishing": 4010,
      "innovation": 4011,
      "incorporate": 4012,
      "inherently": 4013,
      "annual": 4014,
      "modal": 4015,
      "texts": 4016,
      "acceptable": 4017,
      "weapons": 4018,
      "discrete": 4019,
      "evacuation": 4020,
      "closely": 4021,
      "regularization": 4022,
      "forecasts": 4023,
      "preserve": 4024,
      "collaboration": 4025,
      "circuits": 4026,
      "psychology": 4027,
      "candidate": 4028,
      "pioneer": 4029,
      "vulnerable": 4030,
      "British": 4031,
      "Framework": 4032,
      "Horn": 4033,
      "IBM": 4034,
      "Samuel": 4035,
      "YouTu": 4036,
      "average": 4037,
      "piece": 4038,
      "sales": 4039,
      "smart": 4040,
      "alphabet": 4041,
      "champion": 4042,
      "storage": 4043,
      "consists": 4044,
      "prevalence": 4045,
      "ministration": 4046,
      "validation": 4047,
      "Algorithms": 4048,
      "capacity": 4049,
      "Analysis": 4050,
      "historical": 4051,
      "challenging": 4052,
      "configurations": 4053,
      "societal": 4054,
      "Transformers": 4055,
      "progressively": 4056,
      "Philosopher": 4057,
      "Robot": 4058,
      "parallel": 4059,
      "estimates": 4060,
      "Atom": 4061,
      "April": 4062,
      "Claude": 4063,
      "Despite": 4064,
      "Digital": 4065,
      "David": 4066,
      "Hopfield": 4067,
      "Ipsos": 4068,
      "Journal": 4069,
      "Kunihiko": 4070,
      "Language": 4071,
      "Minsky": 4072,
      "Office": 4073,
      "Qwen": 4074,
      "Rosenblatt": 4075,
      "University": 4076,
      "Veo": 4077,
      "density": 4078,
      "eclipsed": 4079,
      "fresh": 4080,
      "fashion": 4081,
      "halluc": 4082,
      "phase": 4083,
      "smooth": 4084,
      "scoring": 4085,
      "wrote": 4086,
      "aspects": 4087,
      "assumptions": 4088,
      "deviations": 4089,
      "strength": 4090,
      "mobile": 4091,
      "constraint": 4092,
      "accordance": 4093,
      "exploratory": 4094,
      "external": 4095,
      "Inductive": 4096,
      "precedent": 4097,
      "welfare": 4098,
      "steadily": 4099,
      "gorillas": 4100,
      "derived": 4101,
      "mistakenly": 4102,
      "validated": 4103,
      "Chinchilla": 4104,
      "Probabilistic": 4105,
      "facilitate": 4106,
      "YouTube": 4107,
      "%),": 4108,
      "(.)": 4109,
      "1000": 4110,
      "24": 4111,
      "26": 4112,
      "32": 4113,
      "37": 4114,
      "40": 4115,
      "47": 4116,
      "49": 4117,
      "61": 4118,
      "65": 4119,
      "77": 4120,
      "7B": 4121,
      "AA": 4122,
      "AC": 4123,
      "AT": 4124,
      "AU": 4125,
      "Am": 4126,
      "Au": 4127,
      "Ara": 4128,
      "Ali": 4129,
      "Ado": 4130,
      "Award": 4131,
      "Agen": 4132,
      "Bis": 4133,
      "Back": 4134,
      "Beng": 4135,
      "Both": 4136,
      "BML": 4137,
      "CF": 4138,
      "CN": 4139,
      "Cent": 4140,
      "Cra": 4141,
      "Cul": 4142,
      "Cha": 4143,
      "Col": 4144,
      "Cho": 4145,
      "Cour": 4146,
      "Cran": 4147,
      "Dar": 4148,
      "Def": 4149,
      "Dys": 4150,
      "Day": 4151,
      "Dick": 4152,
      "EA": 4153,
      "ER": 4154,
      "Ef": 4155,
      "El": 4156,
      "Eth": 4157,
      "Ele": 4158,
      "Elect": 4159,
      "Even": 4160,
      "Embed": 4161,
      "Evalu": 4162,
      "FP": 4163,
      "Fa": 4164,
      "Fut": 4165,
      "FNN": 4166,
      "Flow": 4167,
      "Fore": 4168,
      "Flu": 4169,
      "Further": 4170,
      "Finding": 4171,
      "GG": 4172,
      "Git": 4173,
      "Game": 4174,
      "Gart": 4175,
      "Gran": 4176,
      "GNo": 4177,
      "Gabor": 4178,
      "Gord": 4179,
      "HA": 4180,
      "HF": 4181,
      "Ha": 4182,
      "Hen": 4183,
      "Har": 4184,
      "His": 4185,
      "Hut": 4186,
      "Hass": 4187,
      "Hav": 4188,
      "Hidden": 4189,
      "Im": 4190,
      "Iv": 4191,
      "Ian": 4192,
      "Imp": 4193,
      "Its": 4194,
      "INNs": 4195,
      "Ising": 4196,
      "IEA": 4197,
      "Je": 4198,
      "Jon": 4199,
      "Jens": 4200,
      "Ku": 4201,
      "Kur": 4202,
      "Key": 4203,
      "Knowledge": 4204,
      "LI": 4205,
      "LT": 4206,
      "LU": 4207,
      "LZ": 4208,
      "Li": 4209,
      "Lo": 4210,
      "Lu": 4211,
      "Lar": 4212,
      "Long": 4213,
      "Los": 4214,
      "Labor": 4215,
      "Mat": 4216,
      "Mus": 4217,
      "Mora": 4218,
      "MDP": 4219,
      "NR": 4220,
      "Nor": 4221,
      "Nil": 4222,
      "NLP": 4223,
      "Os": 4224,
      "Over": 4225,
      "OEC": 4226,
      "PA": 4227,
      "Pen": 4228,
      "Pra": 4229,
      "Pac": 4230,
      "Pear": 4231,
      "Publ": 4232,
      "PCA": 4233,
      "PDE": 4234,
      "PINNs": 4235,
      "Ru": 4236,
      "Red": 4237,
      "Ris": 4238,
      "Ray": 4239,
      "Rain": 4240,
      "Random": 4241,
      "RBML": 4242,
      "RPA": 4243,
      "Sa": 4244,
      "So": 4245,
      "Ser": 4246,
      "Sing": 4247,
      "Sun": 4248,
      "Sur": 4249,
      "Ste": 4250,
      "Sign": 4251,
      "Sear": 4252,
      "Sup": 4253,
      "Special": 4254,
      "Small": 4255,
      "Sora": 4256,
      "SRI": 4257,
      "TC": 4258,
      "Tex": 4259,
      "Tim": 4260,
      "Tom": 4261,
      "Two": 4262,
      "Tai": 4263,
      "Twit": 4264,
      "Turis": 4265,
      "UT": 4266,
      "Ubit": 4267,
      "Vo": 4268,
      "Ver": 4269,
      "Very": 4270,
      "VGG": 4271,
      "Wa": 4272,
      "Wal": 4273,
      "War": 4274,
      "Wes": 4275,
      "With": 4276,
      "Wall": 4277,
      "Wats": 4278,
      "Yor": 4279,
      "Yos": 4280,
      "Zh": 4281,
      "\\{\\": 4282,
      "aug": 4283,
      "ael": 4284,
      "athan": 4285,
      "aves": 4286,
      "award": 4287,
      "bb": 4288,
      "bat": 4289,
      "bra": 4290,
      "blo": 4291,
      "bers": 4292,
      "bations": 4293,
      "bri": 4294,
      "bau": 4295,
      "bates": 4296,
      "base": 4297,
      "bited": 4298,
      "bread": 4299,
      "breed": 4300,
      "binding": 4301,
      "cut": 4302,
      "cab": 4303,
      "cere": 4304,
      "cam": 4305,
      "cris": 4306,
      "dro": 4307,
      "dit": 4308,
      "dation": 4309,
      "dys": 4310,
      "dden": 4311,
      "ell": 4312,
      "eficial": 4313,
      "eons": 4314,
      "ecu": 4315,
      "emit": 4316,
      "eously": 4317,
      "fare": 4318,
      "fif": 4319,
      "flu": 4320,
      "ffies": 4321,
      "fron": 4322,
      "fuzz": 4323,
      "friend": 4324,
      "ga": 4325,
      "gent": 4326,
      "gated": 4327,
      "gments": 4328,
      "gating": 4329,
      "gran": 4330,
      "gators": 4331,
      "hal": 4332,
      "hence": 4333,
      "hors": 4334,
      "hrase": 4335,
      "hiring": 4336,
      "ik": 4337,
      "ich": 4338,
      "ira": 4339,
      "ific": 4340,
      "iate": 4341,
      "itions": 4342,
      "ios": 4343,
      "juris": 4344,
      "ktop": 4345,
      "llow": 4346,
      "list": 4347,
      "lines": 4348,
      "llect": 4349,
      "my": 4350,
      "mes": 4351,
      "mir": 4352,
      "mass": 4353,
      "mmit": 4354,
      "mune": 4355,
      "ned": 4356,
      "ox": 4357,
      "oes": 4358,
      "ove": 4359,
      "oms": 4360,
      "oks": 4361,
      "oted": 4362,
      "ocor": 4363,
      "oising": 4364,
      "pan": 4365,
      "pun": 4366,
      "pig": 4367,
      "pies": 4368,
      "pons": 4369,
      "players": 4370,
      "pared": 4371,
      "puzz": 4372,
      "pneu": 4373,
      "rm": 4374,
      "rig": 4375,
      "rid": 4376,
      "rating": 4377,
      "sat": 4378,
      "san": 4379,
      "sle": 4380,
      "sus": 4381,
      "sil": 4382,
      "sla": 4383,
      "song": 4384,
      "sca": 4385,
      "scra": 4386,
      "screen": 4387,
      "tw": 4388,
      "tan": 4389,
      "tly": 4390,
      "tative": 4391,
      "tag": 4392,
      "txt": 4393,
      "tability": 4394,
      "tural": 4395,
      "tling": 4396,
      "ues": 4397,
      "ump": 4398,
      "umb": 4399,
      "uistic": 4400,
      "vig": 4401,
      "vive": 4402,
      "vag": 4403,
      "vanced": 4404,
      "wers": 4405,
      "wking": 4406,
      "winter": 4407,
      "yright": 4408,
      "zens": 4409,
      "ino": 4410,
      "iny": 4411,
      "ined": 4412,
      "inations": 4413,
      "instru": 4414,
      "income": 4415,
      "inoff": 4416,
      "inven": 4417,
      "inions": 4418,
      "invent": 4419,
      "inferences": 4420,
      "insufficient": 4421,
      "inaccurate": 4422,
      "index": 4423,
      "thal": 4424,
      "thrm": 4425,
      "era": 4426,
      "ert": 4427,
      "onto": 4428,
      "ondu": 4429,
      "onions": 4430,
      "ater": 4431,
      "atus": 4432,
      "atial": 4433,
      "atom": 4434,
      "attri": 4435,
      "atoes": 4436,
      "ante": 4437,
      "anta": 4438,
      "ancing": 4439,
      "reve": 4440,
      "reput": 4441,
      "reci": 4442,
      "revi": 4443,
      "refer": 4444,
      "recor": 4445,
      "retrained": 4446,
      "reet": 4447,
      "remain": 4448,
      "refin": 4449,
      "reactions": 4450,
      "revie": 4451,
      "reopen": 4452,
      "revolution": 4453,
      "reiter": 4454,
      "rehen": 4455,
      "referred": 4456,
      "record": 4457,
      "reams": 4458,
      "rejected": 4459,
      "reinven": 4460,
      "enko": 4461,
      "alge": 4462,
      "altern": 4463,
      "altered": 4464,
      "ority": 4465,
      "orates": 4466,
      "orary": 4467,
      "orders": 4468,
      "orphic": 4469,
      "edge": 4470,
      "educ": 4471,
      "theless": 4472,
      "arms": 4473,
      "ardi": 4474,
      "arrange": 4475,
      "arante": 4476,
      "tizens": 4477,
      "ises": 4478,
      "isations": 4479,
      "ission": 4480,
      "lem": 4481,
      "lean": 4482,
      "lege": 4483,
      "leaves": 4484,
      "lethal": 4485,
      "assumption": 4486,
      "offic": 4487,
      "official": 4488,
      "charge": 4489,
      "child": 4490,
      "chreiter": 4491,
      "toge": 4492,
      "toms": 4493,
      "told": 4494,
      "tored": 4495,
      "took": 4496,
      "total": 4497,
      "room": 4498,
      "anded": 4499,
      "ica": 4500,
      "icated": 4501,
      "icious": 4502,
      "degra": 4503,
      "defa": 4504,
      "devised": 4505,
      "debates": 4506,
      "ustic": 4507,
      "ustive": 4508,
      "usual": 4509,
      "covari": 4510,
      "covers": 4511,
      "covery": 4512,
      "copies": 4513,
      "coined": 4514,
      "itative": 4515,
      "entang": 4516,
      "project": 4517,
      "propor": 4518,
      "proceed": 4519,
      "stere": 4520,
      "story": 4521,
      "stack": 4522,
      "stages": 4523,
      "stances": 4524,
      "status": 4525,
      "streams": 4526,
      "mage": 4527,
      "mathrm": 4528,
      "bel": 4529,
      "bell": 4530,
      "beyond": 4531,
      "mpster": 4532,
      "rad": 4533,
      "raising": 4534,
      "near": 4535,
      "neare": 4536,
      "neigh": 4537,
      "nearly": 4538,
      "neither": 4539,
      "negation": 4540,
      "neocor": 4541,
      "tionally": 4542,
      "tionately": 4543,
      "security": 4544,
      "ford": 4545,
      "fort": 4546,
      "forget": 4547,
      "suasion": 4548,
      "sudden": 4549,
      "unif": 4550,
      "unlike": 4551,
      "unconscious": 4552,
      "unobserved": 4553,
      "unlabeled": 4554,
      "unsolved": 4555,
      "untary": 4556,
      "unzip": 4557,
      "uncomfortable": 4558,
      "unintended": 4559,
      "unprecedent": 4560,
      "lot": 4561,
      "lost": 4562,
      "loys": 4563,
      "loose": 4564,
      "uri": 4565,
      "urons": 4566,
      "urism": 4567,
      "cture": 4568,
      "igan": 4569,
      "igene": 4570,
      "meta": 4571,
      "member": 4572,
      "melh": 4573,
      "erson": 4574,
      "ull": 4575,
      "ult": 4576,
      "ults": 4577,
      "ulty": 4578,
      "tection": 4579,
      "team": 4580,
      "teams": 4581,
      "constit": 4582,
      "conferences": 4583,
      "consequence": 4584,
      "constitute": 4585,
      "consequences": 4586,
      "Through": 4587,
      "abis": 4588,
      "above": 4589,
      "ilities": 4590,
      "ilia": 4591,
      "iliar": 4592,
      "node": 4593,
      "nograph": 4594,
      "nothing": 4595,
      "accomp": 4596,
      "acial": 4597,
      "worth": 4598,
      "resist": 4599,
      "respons": 4600,
      "sib": 4601,
      "msky": 4602,
      "compact": 4603,
      "compris": 4604,
      "complic": 4605,
      "compound": 4606,
      "compose": 4607,
      "comprehen": 4608,
      "fications": 4609,
      "ficacy": 4610,
      "2030": 4611,
      "exha": 4612,
      "extend": 4613,
      "exclus": 4614,
      "exception": 4615,
      "extin": 4616,
      "whites": 4617,
      "percent": 4618,
      "perceiv": 4619,
      "pertur": 4620,
      "perfect": 4621,
      "perparameter": 4622,
      "persuasion": 4623,
      "delay": 4624,
      "workload": 4625,
      "termed": 4626,
      "terror": 4627,
      "cler": 4628,
      "clic": 4629,
      "claims": 4630,
      "climate": 4631,
      "post": 4632,
      "pout": 4633,
      "polation": 4634,
      "Inc": 4635,
      "Inference": 4636,
      "India": 4637,
      "diver": 4638,
      "diam": 4639,
      "divis": 4640,
      "dilem": 4641,
      "pective": 4642,
      "pected": 4643,
      "verif": 4644,
      "epigene": 4645,
      "traits": 4646,
      "travers": 4647,
      "travel": 4648,
      "traffic": 4649,
      "manage": 4650,
      "manual": 4651,
      "mented": 4652,
      "mentary": 4653,
      "essential": 4654,
      "essentially": 4655,
      "Theory": 4656,
      "irrelevant": 4657,
      "ticip": 4658,
      "tras": 4659,
      "trillion": 4660,
      "quate": 4661,
      "quity": 4662,
      "quick": 4663,
      "trains": 4664,
      "trainer": 4665,
      "ident": 4666,
      "added": 4667,
      "pretraining": 4668,
      "predefined": 4669,
      "prepared": 4670,
      "life": 4671,
      "liest": 4672,
      "lives": 4673,
      "lihood": 4674,
      "romorphic": 4675,
      "oling": 4676,
      "wear": 4677,
      "weigh": 4678,
      "atedly": 4679,
      "outperforming": 4680,
      "former": 4681,
      "formed": 4682,
      "formation": 4683,
      "formul": 4684,
      "keep": 4685,
      "fell": 4686,
      "fety": 4687,
      "fellow": 4688,
      "unding": 4689,
      "undancies": 4690,
      "ighth": 4691,
      "agues": 4692,
      "ief": 4693,
      "immune": 4694,
      "systematic": 4695,
      "cessing": 4696,
      "disti": 4697,
      "disap": 4698,
      "dispar": 4699,
      "discern": 4700,
      "disagree": 4701,
      "disagreed": 4702,
      "disentang": 4703,
      "dispropor": 4704,
      "entiable": 4705,
      "entirely": 4706,
      "cific": 4707,
      "citizens": 4708,
      "computed": 4709,
      "grading": 4710,
      "hua": 4711,
      "gue": 4712,
      "guards": 4713,
      "guidel": 4714,
      "guarante": 4715,
      "opard": 4716,
      "intellect": 4717,
      "creation": 4718,
      "tax": 4719,
      "tail": 4720,
      "boot": 4721,
      "imaging": 4722,
      "parap": 4723,
      "parties": 4724,
      "answers": 4725,
      "republ": 4726,
      "viol": 4727,
      "vities": 4728,
      "logistic": 4729,
      "aries": 4730,
      "arized": 4731,
      "calling": 4732,
      "illustr": 4733,
      "dictions": 4734,
      "mature": 4735,
      "actual": 4736,
      "dog": 4737,
      "doing": 4738,
      "doubl": 4739,
      "desktop": 4740,
      "phishing": 4741,
      "phrase": 4742,
      "ugg": 4743,
      "researched": 4744,
      "amed": 4745,
      "problematic": 4746,
      "processors": 4747,
      "obli": 4748,
      "objective": 4749,
      "effort": 4750,
      "efficacy": 4751,
      "develops": 4752,
      "overlap": 4753,
      "Decision": 4754,
      "Demis": 4755,
      "Dempster": 4756,
      "yses": 4757,
      "ysics": 4758,
      "blacks": 4759,
      "ught": 4760,
      "evil": 4761,
      "evasion": 4762,
      "imprecise": 4763,
      "antly": 4764,
      "mulative": 4765,
      "ternatively": 4766,
      "ifted": 4767,
      "earliest": 4768,
      "intu": 4769,
      "command": 4770,
      "commission": 4771,
      "representational": 4772,
      "superintelligent": 4773,
      "superior": 4774,
      "supervisory": 4775,
      "taining": 4776,
      "correspond": 4777,
      "transist": 4778,
      "transaction": 4779,
      "bute": 4780,
      "audi": 4781,
      "authen": 4782,
      "DeepSe": 4783,
      "DeepDream": 4784,
      "izations": 4785,
      "minority": 4786,
      "numeric": 4787,
      "server": 4788,
      "xture": 4789,
      "elon": 4790,
      "else": 4791,
      "algorithmically": 4792,
      "famous": 4793,
      "varied": 4794,
      "variation": 4795,
      "\"...": 4796,
      "analyses": 4797,
      "curated": 4798,
      "curios": 4799,
      "ulary": 4800,
      "cycles": 4801,
      "cycle": 4802,
      "misuse": 4803,
      "misleading": 4804,
      "spinoff": 4805,
      "spatial": 4806,
      "updat": 4807,
      "requests": 4808,
      "likelihood": 4809,
      "ightforward": 4810,
      "centroid": 4811,
      "proven": 4812,
      "provably": 4813,
      "subfields": 4814,
      "subjec": 4815,
      "subtle": 4816,
      "questions": 4817,
      "multiplic": 4818,
      "multidimensional": 4819,
      "multimodal": 4820,
      "margin": 4821,
      "patch": 4822,
      "applicants": 4823,
      "servers": 4824,
      "fiers": 4825,
      "fires": 4826,
      "functional": 4827,
      "rent": 4828,
      "rench": 4829,
      "renamed": 4830,
      "nings": 4831,
      "prim": 4832,
      "prone": 4833,
      "interactions": 4834,
      "interview": 4835,
      "interpolation": 4836,
      "Stand": 4837,
      "Statistic": 4838,
      "Street": 4839,
      "versati": 4840,
      "roughly": 4841,
      "expensive": 4842,
      "expanded": 4843,
      "incremental": 4844,
      "incrementally": 4845,
      "Chris": 4846,
      "crip": 4847,
      "mediate": 4848,
      "asters": 4849,
      "wherein": 4850,
      "Recommend": 4851,
      "Recognition": 4852,
      "ReLU": 4853,
      "probably": 4854,
      "differing": 4855,
      "differentiable": 4856,
      "resulted": 4857,
      "labeling": 4858,
      "generalised": 4859,
      "generalization": 4860,
      "generalize": 4861,
      "identity": 4862,
      "detected": 4863,
      "Alternatively": 4864,
      "item": 4865,
      "mathematic": 4866,
      "potatoes": 4867,
      "1999": 4868,
      "cumulative": 4869,
      "capability": 4870,
      "capture": 4871,
      "voluntary": 4872,
      "reasons": 4873,
      "1981": 4874,
      "1987": 4875,
      "1989": 4876,
      "optimistic": 4877,
      "optimise": 4878,
      "specificity": 4879,
      "ength": 4880,
      "engage": 4881,
      "ticularly": 4882,
      "designers": 4883,
      "designated": 4884,
      "ganization": 4885,
      "ponent": 4886,
      "ponents": 4887,
      "scalability": 4888,
      "Hochreiter": 4889,
      "operation": 4890,
      "operational": 4891,
      "pages": 4892,
      "showing": 4893,
      "connectivity": 4894,
      "signs": 4895,
      "signed": 4896,
      "mainly": 4897,
      "GPTZero": 4898,
      "successes": 4899,
      "electorates": 4900,
      "handling": 4901,
      "share": 4902,
      "sharing": 4903,
      "denoising": 4904,
      "malicious": 4905,
      "singular": 4906,
      "experienced": 4907,
      "consideration": 4908,
      "dimensions": 4909,
      "Prog": 4910,
      "Proof": 4911,
      "Project": 4912,
      "ProPubl": 4913,
      "Protection": 4914,
      "Processing": 4915,
      "Proponents": 4916,
      "affect": 4917,
      "ideas": 4918,
      "redundancies": 4919,
      "survive": 4920,
      "temporary": 4921,
      "responsib": 4922,
      "observing": 4923,
      "transformative": 4924,
      "bert": 4925,
      "crut": 4926,
      "criter": 4927,
      "closed": 4928,
      "linguistic": 4929,
      "pped": 4930,
      "atories": 4931,
      "advance": 4932,
      "advice": 4933,
      "advancements": 4934,
      "advanta": 4935,
      "discovers": 4936,
      "plants": 4937,
      "planned": 4938,
      "developmental": 4939,
      "News": 4940,
      "Neats": 4941,
      "Neurons": 4942,
      "USCO": 4943,
      "clearly": 4944,
      "path": 4945,
      "paid": 4946,
      "antiquity": 4947,
      "changed": 4948,
      "improvement": 4949,
      "LLM": 4950,
      "Network": 4951,
      "brains": 4952,
      "nerve": 4953,
      "perspective": 4954,
      "offend": 4955,
      "utonomous": 4956,
      "2003": 4957,
      "2008": 4958,
      "regulate": 4959,
      "defining": 4960,
      "definitions": 4961,
      "empir": 4962,
      "emphas": 4963,
      "employs": 4964,
      "latter": 4965,
      "behaves": 4966,
      "distribu": 4967,
      "Concern": 4968,
      "Conference": 4969,
      "Converse": 4970,
      "akhn": 4971,
      "helm": 4972,
      "holdout": 4973,
      "write": 4974,
      "accumulate": 4975,
      "population": 4976,
      "reports": 4977,
      "foreign": 4978,
      "analyse": 4979,
      "analytical": 4980,
      "provider": 4981,
      "Semi": 4982,
      "names": 4983,
      "pension": 4984,
      "infras": 4985,
      "chool": 4986,
      "physically": 4987,
      "behaviors": 4988,
      "Now": 4989,
      "Noam": 4990,
      "Summit": 4991,
      "faculty": 4992,
      "recommended": 4993,
      "acyclic": 4994,
      "sociation": 4995,
      "positives": 4996,
      "1960": 4997,
      "1962": 4998,
      "1965": 4999
    },
    "merges": [
      [
        "i",
        "n"
      ],
      [
        "t",
        "h"
      ],
      [
        "e",
        "r"
      ],
      [
        "o",
        "n"
      ],
      [
        "a",
        "t"
      ],
      [
        "a",
        "n"
      ],
      [
        "r",
        "e"
      ],
      [
        "e",
        "n"
      ],
      [
        "a",
        "l"
      ],
      [
        "o",
        "r"
      ],
      [
        "e",
        "d"
      ],
      [
        "th",
        "e"
      ],
      [
        "a",
        "r"
      ],
      [
        "in",
        "g"
      ],
      [
        "e",
        "s"
      ],
      [
        "t",
        "i"
      ],
      [
        "i",
        "s"
      ],
      [
        "l",
        "e"
      ],
      [
        "a",
        "s"
      ],
      [
        "o",
        "f"
      ],
      [
        "c",
        "h"
      ],
      [
        "t",
        "o"
      ],
      [
        "r",
        "o"
      ],
      [
        "an",
        "d"
      ],
      [
        "i",
        "c"
      ],
      [
        "d",
        "e"
      ],
      [
        "i",
        "on"
      ],
      [
        "u",
        "s"
      ],
      [
        "c",
        "o"
      ],
      [
        "v",
        "e"
      ],
      [
        "i",
        "t"
      ],
      [
        "at",
        "ion"
      ],
      [
        "en",
        "t"
      ],
      [
        "p",
        "ro"
      ],
      [
        "s",
        "t"
      ],
      [
        "m",
        "a"
      ],
      [
        "b",
        "e"
      ],
      [
        "l",
        "y"
      ],
      [
        "u",
        "t"
      ],
      [
        "m",
        "p"
      ],
      [
        "r",
        "a"
      ],
      [
        "n",
        "e"
      ],
      [
        "ti",
        "on"
      ],
      [
        "s",
        "e"
      ],
      [
        "f",
        "or"
      ],
      [
        "c",
        "e"
      ],
      [
        "s",
        "u"
      ],
      [
        "m",
        "o"
      ],
      [
        "le",
        "ar"
      ],
      [
        "th",
        "at"
      ],
      [
        "lear",
        "n"
      ],
      [
        "u",
        "n"
      ],
      [
        "l",
        "o"
      ],
      [
        "u",
        "r"
      ],
      [
        "c",
        "t"
      ],
      [
        "i",
        "g"
      ],
      [
        "A",
        "I"
      ],
      [
        "m",
        "e"
      ],
      [
        "er",
        "s"
      ],
      [
        "i",
        "th"
      ],
      [
        "learn",
        "ing"
      ],
      [
        "u",
        "l"
      ],
      [
        "t",
        "e"
      ],
      [
        "c",
        "on"
      ],
      [
        "T",
        "h"
      ],
      [
        "a",
        "b"
      ],
      [
        "a",
        "re"
      ],
      [
        "i",
        "l"
      ],
      [
        "g",
        "e"
      ],
      [
        "n",
        "o"
      ],
      [
        "a",
        "c"
      ],
      [
        "w",
        "or"
      ],
      [
        "re",
        "s"
      ],
      [
        "s",
        "i"
      ],
      [
        "s",
        "o"
      ],
      [
        "b",
        "y"
      ],
      [
        "in",
        "e"
      ],
      [
        "m",
        "s"
      ],
      [
        "co",
        "mp"
      ],
      [
        "f",
        "ic"
      ],
      [
        "d",
        "at"
      ],
      [
        "2",
        "0"
      ],
      [
        "e",
        "x"
      ],
      [
        "en",
        "er"
      ],
      [
        "w",
        "h"
      ],
      [
        "p",
        "er"
      ],
      [
        "de",
        "l"
      ],
      [
        "wor",
        "k"
      ],
      [
        "t",
        "er"
      ],
      [
        "c",
        "l"
      ],
      [
        "p",
        "o"
      ],
      [
        "h",
        "a"
      ],
      [
        "mo",
        "del"
      ],
      [
        "I",
        "n"
      ],
      [
        "d",
        "i"
      ],
      [
        "at",
        "e"
      ],
      [
        "p",
        "e"
      ],
      [
        "w",
        "ith"
      ],
      [
        "v",
        "er"
      ],
      [
        "e",
        "p"
      ],
      [
        "t",
        "ra"
      ],
      [
        "l",
        "a"
      ],
      [
        "dat",
        "a"
      ],
      [
        "m",
        "an"
      ],
      [
        "m",
        "ent"
      ],
      [
        "t",
        "s"
      ],
      [
        "g",
        "ener"
      ],
      [
        "a",
        "p"
      ],
      [
        "es",
        "s"
      ],
      [
        "Th",
        "e"
      ],
      [
        "i",
        "r"
      ],
      [
        "i",
        "al"
      ],
      [
        "c",
        "an"
      ],
      [
        "ti",
        "c"
      ],
      [
        "t",
        "r"
      ],
      [
        "ne",
        "t"
      ],
      [
        "l",
        "l"
      ],
      [
        "q",
        "u"
      ],
      [
        "ma",
        "ch"
      ],
      [
        "ar",
        "ch"
      ],
      [
        "tra",
        "in"
      ],
      [
        "net",
        "work"
      ],
      [
        "i",
        "d"
      ],
      [
        "i",
        "ve"
      ],
      [
        "s",
        "y"
      ],
      [
        "a",
        "d"
      ],
      [
        "th",
        "er"
      ],
      [
        "p",
        "re"
      ],
      [
        "it",
        "y"
      ],
      [
        "en",
        "ce"
      ],
      [
        "l",
        "i"
      ],
      [
        "ro",
        "m"
      ],
      [
        "ation",
        "s"
      ],
      [
        "o",
        "l"
      ],
      [
        "w",
        "e"
      ],
      [
        "at",
        "ed"
      ],
      [
        "ic",
        "al"
      ],
      [
        "su",
        "ch"
      ],
      [
        "at",
        "ive"
      ],
      [
        "mach",
        "ine"
      ],
      [
        "f",
        "rom"
      ],
      [
        "o",
        "ut"
      ],
      [
        "ne",
        "ur"
      ],
      [
        "c",
        "tion"
      ],
      [
        "n",
        "i"
      ],
      [
        "us",
        "ed"
      ],
      [
        "for",
        "m"
      ],
      [
        "st",
        "e"
      ],
      [
        "ha",
        "ve"
      ],
      [
        "k",
        "e"
      ],
      [
        "f",
        "e"
      ],
      [
        "g",
        "or"
      ],
      [
        "un",
        "d"
      ],
      [
        "ig",
        "h"
      ],
      [
        "a",
        "g"
      ],
      [
        "i",
        "e"
      ],
      [
        "d",
        "u"
      ],
      [
        "er",
        "e"
      ],
      [
        "de",
        "ep"
      ],
      [
        "model",
        "s"
      ],
      [
        "a",
        "ch"
      ],
      [
        "b",
        "le"
      ],
      [
        "i",
        "m"
      ],
      [
        "p",
        "ut"
      ],
      [
        "sy",
        "ste"
      ],
      [
        "c",
        "ess"
      ],
      [
        "d",
        "is"
      ],
      [
        "o",
        "d"
      ],
      [
        "en",
        "ti"
      ],
      [
        "se",
        "arch"
      ],
      [
        "gor",
        "ith"
      ],
      [
        "u",
        "d"
      ],
      [
        "h",
        "o"
      ],
      [
        "c",
        "i"
      ],
      [
        "la",
        "y"
      ],
      [
        "al",
        "gorith"
      ],
      [
        "neur",
        "al"
      ],
      [
        "1",
        "9"
      ],
      [
        "p",
        "l"
      ],
      [
        "us",
        "e"
      ],
      [
        "no",
        "t"
      ],
      [
        "network",
        "s"
      ],
      [
        "comp",
        "ut"
      ],
      [
        "ab",
        "le"
      ],
      [
        "g",
        "ra"
      ],
      [
        "h",
        "u"
      ],
      [
        "l",
        "ed"
      ],
      [
        "co",
        "m"
      ],
      [
        "wh",
        "i"
      ],
      [
        "g",
        "u"
      ],
      [
        "o",
        "p"
      ],
      [
        "s",
        "pe"
      ],
      [
        "in",
        "te"
      ],
      [
        "c",
        "re"
      ],
      [
        "t",
        "a"
      ],
      [
        "b",
        "o"
      ],
      [
        "r",
        "i"
      ],
      [
        "w",
        "as"
      ],
      [
        "i",
        "ma"
      ],
      [
        "p",
        "ar"
      ],
      [
        "as",
        "ed"
      ],
      [
        "train",
        "ing"
      ],
      [
        "hu",
        "man"
      ],
      [
        "an",
        "s"
      ],
      [
        "re",
        "p"
      ],
      [
        "h",
        "as"
      ],
      [
        "t",
        "y"
      ],
      [
        "ll",
        "ig"
      ],
      [
        "v",
        "i"
      ],
      [
        "in",
        "cl"
      ],
      [
        "al",
        "ly"
      ],
      [
        "be",
        "en"
      ],
      [
        "20",
        "2"
      ],
      [
        "lo",
        "g"
      ],
      [
        "fic",
        "ial"
      ],
      [
        "a",
        "mp"
      ],
      [
        "o",
        "us"
      ],
      [
        "ar",
        "i"
      ],
      [
        "l",
        "d"
      ],
      [
        "t",
        "ing"
      ],
      [
        "u",
        "re"
      ],
      [
        "ti",
        "ficial"
      ],
      [
        "c",
        "al"
      ],
      [
        "k",
        "s"
      ],
      [
        "il",
        "l"
      ],
      [
        "whi",
        "ch"
      ],
      [
        "d",
        "ic"
      ],
      [
        "m",
        "at"
      ],
      [
        "s",
        "ion"
      ],
      [
        "en",
        "d"
      ],
      [
        "inte",
        "llig"
      ],
      [
        "a",
        "ct"
      ],
      [
        "f",
        "er"
      ],
      [
        "i",
        "es"
      ],
      [
        "t",
        "ed"
      ],
      [
        "co",
        "g"
      ],
      [
        "d",
        "o"
      ],
      [
        "d",
        "es"
      ],
      [
        "p",
        "h"
      ],
      [
        "u",
        "g"
      ],
      [
        "ti",
        "ve"
      ],
      [
        "it",
        "s"
      ],
      [
        "f",
        "o"
      ],
      [
        "re",
        "search"
      ],
      [
        "tion",
        "s"
      ],
      [
        "cl",
        "as"
      ],
      [
        "a",
        "m"
      ],
      [
        "v",
        "is"
      ],
      [
        "20",
        "1"
      ],
      [
        "gener",
        "ative"
      ],
      [
        "st",
        "r"
      ],
      [
        "pro",
        "ble"
      ],
      [
        "pro",
        "cess"
      ],
      [
        "no",
        "w"
      ],
      [
        "m",
        "b"
      ],
      [
        "me",
        "th"
      ],
      [
        "cog",
        "ni"
      ],
      [
        "N",
        "N"
      ],
      [
        "ar",
        "ge"
      ],
      [
        "o",
        "b"
      ],
      [
        "in",
        "d"
      ],
      [
        "lo",
        "p"
      ],
      [
        "a",
        "ge"
      ],
      [
        "e",
        "f"
      ],
      [
        "o",
        "ther"
      ],
      [
        "or",
        "y"
      ],
      [
        "of",
        "t"
      ],
      [
        "ve",
        "lop"
      ],
      [
        "ab",
        "il"
      ],
      [
        "b",
        "ased"
      ],
      [
        "the",
        "ir"
      ],
      [
        "de",
        "velop"
      ],
      [
        "ig",
        "n"
      ],
      [
        "meth",
        "od"
      ],
      [
        "ar",
        "tificial"
      ],
      [
        "lo",
        "w"
      ],
      [
        "ac",
        "k"
      ],
      [
        "syste",
        "ms"
      ],
      [
        "o",
        "ver"
      ],
      [
        "ar",
        "d"
      ],
      [
        "intellig",
        "ence"
      ],
      [
        "D",
        "e"
      ],
      [
        "c",
        "is"
      ],
      [
        "y",
        "s"
      ],
      [
        "b",
        "l"
      ],
      [
        "k",
        "now"
      ],
      [
        "ug",
        "h"
      ],
      [
        "a",
        "me"
      ],
      [
        "e",
        "v"
      ],
      [
        "i",
        "mp"
      ],
      [
        "o",
        "m"
      ],
      [
        "ul",
        "d"
      ],
      [
        "pre",
        "dic"
      ],
      [
        "t",
        "as"
      ],
      [
        "an",
        "t"
      ],
      [
        "te",
        "ch"
      ],
      [
        "ex",
        "amp"
      ],
      [
        "l",
        "es"
      ],
      [
        "w",
        "ere"
      ],
      [
        "in",
        "put"
      ],
      [
        "on",
        "e"
      ],
      [
        "re",
        "cogni"
      ],
      [
        "is",
        "tic"
      ],
      [
        "mo",
        "re"
      ],
      [
        "m",
        "ul"
      ],
      [
        "res",
        "ent"
      ],
      [
        "c",
        "er"
      ],
      [
        "e",
        "ct"
      ],
      [
        "ti",
        "m"
      ],
      [
        "pro",
        "gra"
      ],
      [
        "ter",
        "n"
      ],
      [
        ")",
        ","
      ],
      [
        "g",
        "es"
      ],
      [
        "w",
        "o"
      ],
      [
        "al",
        "so"
      ],
      [
        "con",
        "t"
      ],
      [
        "ap",
        "pro"
      ],
      [
        "b",
        "i"
      ],
      [
        "c",
        "ed"
      ],
      [
        "i",
        "f"
      ],
      [
        "l",
        "an"
      ],
      [
        "al",
        "l"
      ],
      [
        "or",
        "s"
      ],
      [
        "G",
        "o"
      ],
      [
        "e",
        "ar"
      ],
      [
        "u",
        "res"
      ],
      [
        "in",
        "t"
      ],
      [
        "di",
        "f"
      ],
      [
        "com",
        "m"
      ],
      [
        "rep",
        "resent"
      ],
      [
        ")",
        "."
      ],
      [
        "the",
        "y"
      ],
      [
        "su",
        "per"
      ],
      [
        "algorith",
        "ms"
      ],
      [
        "ta",
        "in"
      ],
      [
        "c",
        "or"
      ],
      [
        "tr",
        "ans"
      ],
      [
        "train",
        "ed"
      ],
      [
        "ie",
        "ld"
      ],
      [
        "clas",
        "si"
      ],
      [
        "cis",
        "ion"
      ],
      [
        "b",
        "ut"
      ],
      [
        "c",
        "es"
      ],
      [
        "d",
        "er"
      ],
      [
        "i",
        "v"
      ],
      [
        "in",
        "to"
      ],
      [
        "pro",
        "du"
      ],
      [
        "be",
        "t"
      ],
      [
        "incl",
        "ud"
      ],
      [
        "a",
        "u"
      ],
      [
        "ma",
        "y"
      ],
      [
        "De",
        "ep"
      ],
      [
        "i",
        "z"
      ],
      [
        "m",
        "in"
      ],
      [
        "n",
        "u"
      ],
      [
        "s",
        "er"
      ],
      [
        "se",
        "t"
      ],
      [
        "po",
        "s"
      ],
      [
        "lan",
        "gu"
      ],
      [
        "a",
        "y"
      ],
      [
        "f",
        "ield"
      ],
      [
        "x",
        "t"
      ],
      [
        "at",
        "es"
      ],
      [
        "is",
        "t"
      ],
      [
        "de",
        "cision"
      ],
      [
        "c",
        "ial"
      ],
      [
        "ti",
        "es"
      ],
      [
        "ment",
        "s"
      ],
      [
        "ho",
        "w"
      ],
      [
        "pl",
        "ic"
      ],
      [
        "e",
        "l"
      ],
      [
        "es",
        "t"
      ],
      [
        "algorith",
        "m"
      ],
      [
        "method",
        "s"
      ],
      [
        "f",
        "a"
      ],
      [
        "l",
        "arge"
      ],
      [
        "on",
        "g"
      ],
      [
        "re",
        "g"
      ],
      [
        "Th",
        "is"
      ],
      [
        "out",
        "put"
      ],
      [
        "v",
        "ari"
      ],
      [
        "in",
        "form"
      ],
      [
        "us",
        "ing"
      ],
      [
        "ima",
        "ge"
      ],
      [
        "\"",
        "."
      ],
      [
        "e",
        "t"
      ],
      [
        "w",
        "are"
      ],
      [
        "th",
        "is"
      ],
      [
        "re",
        "l"
      ],
      [
        "is",
        "h"
      ],
      [
        "so",
        "l"
      ],
      [
        "recogni",
        "tion"
      ],
      [
        "or",
        "t"
      ],
      [
        "k",
        "ing"
      ],
      [
        "o",
        "g"
      ],
      [
        "an",
        "y"
      ],
      [
        "an",
        "al"
      ],
      [
        "ic",
        "s"
      ],
      [
        "so",
        "me"
      ],
      [
        "und",
        "er"
      ],
      [
        "syste",
        "m"
      ],
      [
        "0",
        "s"
      ],
      [
        "c",
        "ur"
      ],
      [
        "g",
        "o"
      ],
      [
        "i",
        "re"
      ],
      [
        "u",
        "bl"
      ],
      [
        "th",
        "an"
      ],
      [
        "the",
        "se"
      ],
      [
        "ul",
        "ar"
      ],
      [
        "man",
        "y"
      ],
      [
        "tas",
        "ks"
      ],
      [
        "c",
        "y"
      ],
      [
        "m",
        "is"
      ],
      [
        "s",
        "p"
      ],
      [
        "u",
        "p"
      ],
      [
        "on",
        "s"
      ],
      [
        "lay",
        "er"
      ],
      [
        "vis",
        "ed"
      ],
      [
        "re",
        "qu"
      ],
      [
        "li",
        "ke"
      ],
      [
        "igh",
        "t"
      ],
      [
        "I",
        "t"
      ],
      [
        "c",
        "ent"
      ],
      [
        "e",
        "ch"
      ],
      [
        "h",
        "igh"
      ],
      [
        "w",
        "er"
      ],
      [
        "re",
        "e"
      ],
      [
        "lay",
        "ers"
      ],
      [
        "in",
        "es"
      ],
      [
        "ar",
        "y"
      ],
      [
        "ation",
        "al"
      ],
      [
        "pro",
        "v"
      ],
      [
        "su",
        "b"
      ],
      [
        "un",
        "ction"
      ],
      [
        "examp",
        "le"
      ],
      [
        "u",
        "de"
      ],
      [
        "u",
        "tion"
      ],
      [
        "w",
        "ill"
      ],
      [
        "an",
        "ce"
      ],
      [
        "te",
        "xt"
      ],
      [
        "fic",
        "ation"
      ],
      [
        "qu",
        "es"
      ],
      [
        "we",
        "en"
      ],
      [
        "fe",
        "at"
      ],
      [
        "abil",
        "ity"
      ],
      [
        "mul",
        "ti"
      ],
      [
        "progra",
        "m"
      ],
      [
        "langu",
        "age"
      ],
      [
        "f",
        "ul"
      ],
      [
        "m",
        "ar"
      ],
      [
        "p",
        "at"
      ],
      [
        "p",
        "ubl"
      ],
      [
        "u",
        "al"
      ],
      [
        "at",
        "ing"
      ],
      [
        "ap",
        "plic"
      ],
      [
        "ical",
        "ly"
      ],
      [
        "bet",
        "ween"
      ],
      [
        "includ",
        "ing"
      ],
      [
        "ser",
        "v"
      ],
      [
        "G",
        "P"
      ],
      [
        "d",
        "ing"
      ],
      [
        "f",
        "i"
      ],
      [
        "f",
        "unction"
      ],
      [
        "i",
        "p"
      ],
      [
        "re",
        "n"
      ],
      [
        "as",
        "e"
      ],
      [
        "ne",
        "w"
      ],
      [
        "proble",
        "ms"
      ],
      [
        "inform",
        "ation"
      ],
      [
        "f",
        "ir"
      ],
      [
        "n",
        "ing"
      ],
      [
        "p",
        "r"
      ],
      [
        "v",
        "al"
      ],
      [
        "in",
        "ter"
      ],
      [
        "ent",
        "s"
      ],
      [
        "Go",
        "og"
      ],
      [
        "super",
        "vised"
      ],
      [
        "Goog",
        "le"
      ],
      [
        "S",
        "t"
      ],
      [
        "s",
        "oft"
      ],
      [
        "ce",
        "p"
      ],
      [
        "enti",
        "al"
      ],
      [
        "ima",
        "ges"
      ],
      [
        "vi",
        "de"
      ],
      [
        "tech",
        "ni"
      ],
      [
        "0",
        "0"
      ],
      [
        "o",
        "s"
      ],
      [
        "v",
        "es"
      ],
      [
        "v",
        "ers"
      ],
      [
        "ti",
        "me"
      ],
      [
        "le",
        "ct"
      ],
      [
        "ro",
        "ugh"
      ],
      [
        "de",
        "f"
      ],
      [
        "ex",
        "p"
      ],
      [
        "po",
        "wer"
      ],
      [
        "comput",
        "er"
      ],
      [
        "c",
        "tive"
      ],
      [
        "o",
        "ur"
      ],
      [
        "in",
        "cre"
      ],
      [
        "es",
        "e"
      ],
      [
        "mo",
        "st"
      ],
      [
        "spe",
        "ech"
      ],
      [
        "C",
        "h"
      ],
      [
        "b",
        "ack"
      ],
      [
        "c",
        "ri"
      ],
      [
        "m",
        "ed"
      ],
      [
        "de",
        "p"
      ],
      [
        "F",
        "or"
      ],
      [
        "r",
        "is"
      ],
      [
        "ex",
        "per"
      ],
      [
        "ol",
        "d"
      ],
      [
        "led",
        "ge"
      ],
      [
        "ty",
        "p"
      ],
      [
        "incl",
        "ude"
      ],
      [
        "cal",
        "led"
      ],
      [
        "research",
        "ers"
      ],
      [
        "pat",
        "tern"
      ],
      [
        "as",
        "s"
      ],
      [
        "as",
        "t"
      ],
      [
        "ab",
        "out"
      ],
      [
        "wh",
        "ere"
      ],
      [
        "str",
        "u"
      ],
      [
        "v",
        "ir"
      ],
      [
        "th",
        "o"
      ],
      [
        "as",
        "es"
      ],
      [
        "proble",
        "m"
      ],
      [
        "appro",
        "ach"
      ],
      [
        "R",
        "e"
      ],
      [
        "j",
        "ect"
      ],
      [
        "l",
        "ine"
      ],
      [
        "th",
        "rough"
      ],
      [
        "re",
        "su"
      ],
      [
        "pro",
        "b"
      ],
      [
        "NN",
        "s"
      ],
      [
        "know",
        "ledge"
      ],
      [
        "dif",
        "fer"
      ],
      [
        "fir",
        "st"
      ],
      [
        "resu",
        "l"
      ],
      [
        "U",
        "n"
      ],
      [
        "c",
        "a"
      ],
      [
        "us",
        "es"
      ],
      [
        "ve",
        "l"
      ],
      [
        "res",
        "s"
      ],
      [
        "res",
        "sion"
      ],
      [
        "la",
        "be"
      ],
      [
        "gener",
        "al"
      ],
      [
        "id",
        "enti"
      ],
      [
        "spe",
        "ci"
      ],
      [
        "mb",
        "er"
      ],
      [
        "develop",
        "ed"
      ],
      [
        "wo",
        "uld"
      ],
      [
        "go",
        "al"
      ],
      [
        "h",
        "e"
      ],
      [
        "s",
        "ci"
      ],
      [
        "en",
        "s"
      ],
      [
        "le",
        "x"
      ],
      [
        "de",
        "te"
      ],
      [
        "cont",
        "ent"
      ],
      [
        "classi",
        "fication"
      ],
      [
        "A",
        "l"
      ],
      [
        "the",
        "mat"
      ],
      [
        "it",
        "e"
      ],
      [
        "ma",
        "ke"
      ],
      [
        "ma",
        "themat"
      ],
      [
        "tion",
        "al"
      ],
      [
        "ur",
        "ing"
      ],
      [
        "po",
        "t"
      ],
      [
        "ver",
        "y"
      ],
      [
        "we",
        "ver"
      ],
      [
        "19",
        "9"
      ],
      [
        "log",
        "y"
      ],
      [
        "process",
        "ing"
      ],
      [
        "applic",
        "ations"
      ],
      [
        "G",
        "ener"
      ],
      [
        "f",
        "y"
      ],
      [
        "m",
        "er"
      ],
      [
        "m",
        "en"
      ],
      [
        "us",
        "t"
      ],
      [
        "it",
        "ed"
      ],
      [
        "ha",
        "d"
      ],
      [
        "tr",
        "i"
      ],
      [
        "oft",
        "en"
      ],
      [
        "techni",
        "ques"
      ],
      [
        "c",
        "u"
      ],
      [
        "c",
        "ap"
      ],
      [
        "l",
        "ic"
      ],
      [
        "v",
        "ol"
      ],
      [
        "w",
        "ard"
      ],
      [
        "th",
        "en"
      ],
      [
        "re",
        "al"
      ],
      [
        "re",
        "as"
      ],
      [
        "it",
        "ect"
      ],
      [
        "con",
        "si"
      ],
      [
        "il",
        "ar"
      ],
      [
        "fic",
        "i"
      ],
      [
        "per",
        "form"
      ],
      [
        "arch",
        "itect"
      ],
      [
        "19",
        "8"
      ],
      [
        "op",
        "tim"
      ],
      [
        "cer",
        "n"
      ],
      [
        "cer",
        "tain"
      ],
      [
        "pos",
        "si"
      ],
      [
        "speci",
        "fic"
      ],
      [
        "a",
        "ce"
      ],
      [
        "i",
        "ties"
      ],
      [
        "k",
        "es"
      ],
      [
        "p",
        "le"
      ],
      [
        "x",
        "im"
      ],
      [
        "en",
        "g"
      ],
      [
        "al",
        "low"
      ],
      [
        "the",
        "ory"
      ],
      [
        "ar",
        "t"
      ],
      [
        "ra",
        "in"
      ],
      [
        "lo",
        "y"
      ],
      [
        "ur",
        "al"
      ],
      [
        "wh",
        "at"
      ],
      [
        "wh",
        "en"
      ],
      [
        "tic",
        "ular"
      ],
      [
        "bo",
        "th"
      ],
      [
        "202",
        "3"
      ],
      [
        "des",
        "ign"
      ],
      [
        "requ",
        "ire"
      ],
      [
        "stru",
        "ct"
      ],
      [
        "a",
        "v"
      ],
      [
        "e",
        "ach"
      ],
      [
        "f",
        "act"
      ],
      [
        "g",
        "an"
      ],
      [
        "g",
        "ro"
      ],
      [
        "p",
        "on"
      ],
      [
        "r",
        "an"
      ],
      [
        "s",
        "cal"
      ],
      [
        "on",
        "ly"
      ],
      [
        "ar",
        "gu"
      ],
      [
        "to",
        "ol"
      ],
      [
        "de",
        "m"
      ],
      [
        "ap",
        "p"
      ],
      [
        "op",
        "le"
      ],
      [
        "au",
        "to"
      ],
      [
        "ish",
        "ed"
      ],
      [
        "reas",
        "on"
      ],
      [
        ".",
        ","
      ],
      [
        "A",
        "n"
      ],
      [
        "H",
        "o"
      ],
      [
        "M",
        "ach"
      ],
      [
        "o",
        "per"
      ],
      [
        "p",
        "ag"
      ],
      [
        "s",
        "how"
      ],
      [
        "t",
        "wo"
      ],
      [
        "z",
        "e"
      ],
      [
        "ro",
        "du"
      ],
      [
        "ic",
        "es"
      ],
      [
        "st",
        "ate"
      ],
      [
        "st",
        "ud"
      ],
      [
        "su",
        "c"
      ],
      [
        "con",
        "ne"
      ],
      [
        "ter",
        "m"
      ],
      [
        "pe",
        "ople"
      ],
      [
        "ver",
        "al"
      ],
      [
        "par",
        "ticular"
      ],
      [
        "ef",
        "fe"
      ],
      [
        "ear",
        "ly"
      ],
      [
        "p",
        "ri"
      ],
      [
        "s",
        "ign"
      ],
      [
        "v",
        "ing"
      ],
      [
        "en",
        "vir"
      ],
      [
        "le",
        "vel"
      ],
      [
        "ma",
        "in"
      ],
      [
        "con",
        "cern"
      ],
      [
        "log",
        "ic"
      ],
      [
        "ill",
        "ion"
      ],
      [
        "fo",
        "und"
      ],
      [
        "ys",
        "is"
      ],
      [
        "know",
        "n"
      ],
      [
        "bi",
        "o"
      ],
      [
        "int",
        "rodu"
      ],
      [
        "feat",
        "ures"
      ],
      [
        "GP",
        "T"
      ],
      [
        "suc",
        "cess"
      ],
      [
        "envir",
        "on"
      ],
      [
        "e",
        "th"
      ],
      [
        "e",
        "lect"
      ],
      [
        "h",
        "and"
      ],
      [
        "l",
        "f"
      ],
      [
        "s",
        "h"
      ],
      [
        "at",
        "istic"
      ],
      [
        "the",
        "m"
      ],
      [
        "pro",
        "pag"
      ],
      [
        "be",
        "ing"
      ],
      [
        "mo",
        "us"
      ],
      [
        "ct",
        "s"
      ],
      [
        "ct",
        "ed"
      ],
      [
        "per",
        "for"
      ],
      [
        "tic",
        "al"
      ],
      [
        "li",
        "ed"
      ],
      [
        "we",
        "ll"
      ],
      [
        "pattern",
        "s"
      ],
      [
        "Gener",
        "ative"
      ],
      [
        "\"",
        ","
      ],
      [
        "b",
        "u"
      ],
      [
        "d",
        "en"
      ],
      [
        "g",
        "y"
      ],
      [
        "h",
        "i"
      ],
      [
        "m",
        "al"
      ],
      [
        "n",
        "ess"
      ],
      [
        "s",
        "ing"
      ],
      [
        "w",
        "n"
      ],
      [
        "w",
        "ay"
      ],
      [
        "an",
        "ies"
      ],
      [
        "re",
        "du"
      ],
      [
        "en",
        "ces"
      ],
      [
        "co",
        "l"
      ],
      [
        "co",
        "uld"
      ],
      [
        "Th",
        "ese"
      ],
      [
        "di",
        "men"
      ],
      [
        "gener",
        "ated"
      ],
      [
        "The",
        "y"
      ],
      [
        "neur",
        "ons"
      ],
      [
        "202",
        "4"
      ],
      [
        "tech",
        "no"
      ],
      [
        "cur",
        "ren"
      ],
      [
        "soft",
        "ware"
      ],
      [
        "exper",
        "i"
      ],
      [
        "ca",
        "use"
      ],
      [
        "consi",
        "der"
      ],
      [
        "scal",
        "e"
      ],
      [
        "reason",
        "ing"
      ],
      [
        "Ho",
        "wever"
      ],
      [
        "dimen",
        "sion"
      ],
      [
        "P",
        "ro"
      ],
      [
        "a",
        "f"
      ],
      [
        "i",
        "de"
      ],
      [
        "l",
        "ess"
      ],
      [
        "m",
        "ilar"
      ],
      [
        "n",
        "on"
      ],
      [
        "u",
        "ally"
      ],
      [
        "v",
        "ed"
      ],
      [
        "re",
        "d"
      ],
      [
        "ti",
        "v"
      ],
      [
        "is",
        "m"
      ],
      [
        "co",
        "me"
      ],
      [
        "st",
        "atistic"
      ],
      [
        "se",
        "veral"
      ],
      [
        "su",
        "r"
      ],
      [
        "te",
        "mp"
      ],
      [
        "res",
        "pon"
      ],
      [
        "si",
        "milar"
      ],
      [
        "comp",
        "lex"
      ],
      [
        "wh",
        "o"
      ],
      [
        "work",
        "s"
      ],
      [
        "ther",
        "e"
      ],
      [
        "clas",
        "s"
      ],
      [
        "ob",
        "serv"
      ],
      [
        "trans",
        "form"
      ],
      [
        "iv",
        "en"
      ],
      [
        "anal",
        "ysis"
      ],
      [
        "line",
        "ar"
      ],
      [
        "fici",
        "ent"
      ],
      [
        "A",
        "r"
      ],
      [
        "b",
        "er"
      ],
      [
        "c",
        "r"
      ],
      [
        "c",
        "lo"
      ],
      [
        "g",
        "en"
      ],
      [
        "h",
        "ard"
      ],
      [
        "i",
        "a"
      ],
      [
        "l",
        "ing"
      ],
      [
        "o",
        "re"
      ],
      [
        "p",
        "p"
      ],
      [
        "at",
        "or"
      ],
      [
        "al",
        "ity"
      ],
      [
        "le",
        "ad"
      ],
      [
        "pro",
        "ve"
      ],
      [
        "se",
        "lf"
      ],
      [
        "man",
        "ce"
      ],
      [
        "gener",
        "ation"
      ],
      [
        "ad",
        "v"
      ],
      [
        "igh",
        "ts"
      ],
      [
        "ag",
        "es"
      ],
      [
        "dis",
        "co"
      ],
      [
        "pl",
        "an"
      ],
      [
        "develop",
        "ment"
      ],
      [
        "examp",
        "les"
      ],
      [
        "nu",
        "mber"
      ],
      [
        "multi",
        "ple"
      ],
      [
        "app",
        "lied"
      ],
      [
        "perfor",
        "mance"
      ],
      [
        "C",
        "o"
      ],
      [
        "N",
        "e"
      ],
      [
        "U",
        "S"
      ],
      [
        "c",
        "us"
      ],
      [
        "c",
        "lear"
      ],
      [
        "f",
        "ra"
      ],
      [
        "f",
        "ind"
      ],
      [
        "g",
        "r"
      ],
      [
        "m",
        "ing"
      ],
      [
        "p",
        "a"
      ],
      [
        "s",
        "ig"
      ],
      [
        "u",
        "e"
      ],
      [
        "in",
        "ce"
      ],
      [
        "an",
        "ti"
      ],
      [
        "re",
        "ct"
      ],
      [
        "is",
        "e"
      ],
      [
        "ch",
        "an"
      ],
      [
        "ro",
        "bo"
      ],
      [
        "ic",
        "ro"
      ],
      [
        "us",
        "ion"
      ],
      [
        "se",
        "qu"
      ],
      [
        "learn",
        "ed"
      ],
      [
        "wor",
        "ld"
      ],
      [
        "comp",
        "anies"
      ],
      [
        "gener",
        "ate"
      ],
      [
        "mach",
        "ines"
      ],
      [
        "im",
        "prove"
      ],
      [
        "des",
        "cri"
      ],
      [
        "mb",
        "ol"
      ],
      [
        "pos",
        "ed"
      ],
      [
        "decision",
        "s"
      ],
      [
        "rel",
        "ated"
      ],
      [
        "typ",
        "ically"
      ],
      [
        "mathemat",
        "ical"
      ],
      [
        "introdu",
        "ced"
      ],
      [
        "environ",
        "ment"
      ],
      [
        "curren",
        "t"
      ],
      [
        "G",
        "e"
      ],
      [
        "L",
        "L"
      ],
      [
        "N",
        "et"
      ],
      [
        "b",
        "rain"
      ],
      [
        "i",
        "ti"
      ],
      [
        "n",
        "er"
      ],
      [
        "o",
        "k"
      ],
      [
        "p",
        "ers"
      ],
      [
        "p",
        "lay"
      ],
      [
        "s",
        "a"
      ],
      [
        "s",
        "ti"
      ],
      [
        "t",
        "en"
      ],
      [
        "re",
        "le"
      ],
      [
        "of",
        "f"
      ],
      [
        "ut",
        "on"
      ],
      [
        "for",
        "ce"
      ],
      [
        "ac",
        "tion"
      ],
      [
        "fic",
        "ul"
      ],
      [
        "fic",
        "ant"
      ],
      [
        "20",
        "0"
      ],
      [
        "sy",
        "mbol"
      ],
      [
        "ni",
        "ficant"
      ],
      [
        "whi",
        "le"
      ],
      [
        "log",
        "ical"
      ],
      [
        "progra",
        "ms"
      ],
      [
        "appro",
        "xim"
      ],
      [
        "dif",
        "ficul"
      ],
      [
        "reg",
        "ul"
      ],
      [
        "publ",
        "ic"
      ],
      [
        "vide",
        "o"
      ],
      [
        "def",
        "in"
      ],
      [
        "dep",
        "end"
      ],
      [
        "tho",
        "ugh"
      ],
      [
        "resul",
        "ts"
      ],
      [
        "identi",
        "fy"
      ],
      [
        "possi",
        "ble"
      ],
      [
        "stud",
        "y"
      ],
      [
        "sign",
        "al"
      ],
      [
        "elect",
        "r"
      ],
      [
        "sig",
        "nificant"
      ],
      [
        ".",
        "\""
      ],
      [
        "e",
        "mp"
      ],
      [
        "f",
        "it"
      ],
      [
        "l",
        "at"
      ],
      [
        "l",
        "ong"
      ],
      [
        "s",
        "s"
      ],
      [
        "s",
        "it"
      ],
      [
        "es",
        "tim"
      ],
      [
        "is",
        "ation"
      ],
      [
        "ic",
        "e"
      ],
      [
        "ma",
        "king"
      ],
      [
        "be",
        "ha"
      ],
      [
        "ct",
        "or"
      ],
      [
        "ul",
        "es"
      ],
      [
        "Th",
        "ere"
      ],
      [
        "ab",
        "les"
      ],
      [
        "wor",
        "d"
      ],
      [
        "with",
        "out"
      ],
      [
        "dis",
        "tri"
      ],
      [
        "predic",
        "t"
      ],
      [
        "sp",
        "ace"
      ],
      [
        "publ",
        "ished"
      ],
      [
        "differ",
        "ent"
      ],
      [
        "pot",
        "ential"
      ],
      [
        "tool",
        "s"
      ],
      [
        "Mach",
        "ine"
      ],
      [
        "C",
        "on"
      ],
      [
        "S",
        "T"
      ],
      [
        "a",
        "k"
      ],
      [
        "a",
        "il"
      ],
      [
        "a",
        "uton"
      ],
      [
        "f",
        "in"
      ],
      [
        "g",
        "iven"
      ],
      [
        "h",
        "el"
      ],
      [
        "h",
        "old"
      ],
      [
        "n",
        "at"
      ],
      [
        "p",
        "ha"
      ],
      [
        "s",
        "ame"
      ],
      [
        "v",
        "en"
      ],
      [
        "w",
        "r"
      ],
      [
        "ic",
        "k"
      ],
      [
        "ra",
        "cy"
      ],
      [
        "un",
        "its"
      ],
      [
        "ac",
        "cu"
      ],
      [
        "si",
        "ve"
      ],
      [
        "po",
        "p"
      ],
      [
        "di",
        "tional"
      ],
      [
        "comput",
        "ing"
      ],
      [
        "comput",
        "ational"
      ],
      [
        "rep",
        "or"
      ],
      [
        "fo",
        "re"
      ],
      [
        "predic",
        "tions"
      ],
      [
        "tas",
        "k"
      ],
      [
        "comm",
        "end"
      ],
      [
        "produ",
        "ced"
      ],
      [
        "sol",
        "ve"
      ],
      [
        "anal",
        "y"
      ],
      [
        "prov",
        "id"
      ],
      [
        "back",
        "propag"
      ],
      [
        "prob",
        "abil"
      ],
      [
        "hard",
        "ware"
      ],
      [
        "S",
        "e"
      ],
      [
        "U",
        "s"
      ],
      [
        "a",
        "in"
      ],
      [
        "g",
        "over"
      ],
      [
        "i",
        "lo"
      ],
      [
        "m",
        "it"
      ],
      [
        "n",
        "am"
      ],
      [
        "o",
        "mous"
      ],
      [
        "p",
        "y"
      ],
      [
        "p",
        "en"
      ],
      [
        "s",
        "is"
      ],
      [
        "t",
        "ers"
      ],
      [
        "t",
        "arge"
      ],
      [
        "in",
        "f"
      ],
      [
        "in",
        "force"
      ],
      [
        "ch",
        "o"
      ],
      [
        "be",
        "li"
      ],
      [
        "ac",
        "tions"
      ],
      [
        "ag",
        "ent"
      ],
      [
        "ie",
        "ty"
      ],
      [
        "ach",
        "ie"
      ],
      [
        "human",
        "s"
      ],
      [
        "vi",
        "ous"
      ],
      [
        "ph",
        "ys"
      ],
      [
        "vis",
        "ion"
      ],
      [
        "cor",
        "ding"
      ],
      [
        "fa",
        "ir"
      ],
      [
        "vari",
        "ous"
      ],
      [
        "feat",
        "ure"
      ],
      [
        "program",
        "ming"
      ],
      [
        "approach",
        "es"
      ],
      [
        "Un",
        "ited"
      ],
      [
        "bu",
        "il"
      ],
      [
        "techno",
        "logy"
      ],
      [
        "af",
        "ter"
      ],
      [
        "beha",
        "vi"
      ],
      [
        "backpropag",
        "ation"
      ],
      [
        "N",
        "o"
      ],
      [
        "S",
        "u"
      ],
      [
        "c",
        "ame"
      ],
      [
        "f",
        "ac"
      ],
      [
        "h",
        "ip"
      ],
      [
        "k",
        "en"
      ],
      [
        "l",
        "u"
      ],
      [
        "v",
        "ie"
      ],
      [
        "at",
        "temp"
      ],
      [
        "an",
        "ces"
      ],
      [
        "re",
        "commend"
      ],
      [
        "en",
        "se"
      ],
      [
        "is",
        "ed"
      ],
      [
        "is",
        "su"
      ],
      [
        "le",
        "ction"
      ],
      [
        "us",
        "ers"
      ],
      [
        "pro",
        "posed"
      ],
      [
        "be",
        "cause"
      ],
      [
        "un",
        "supervised"
      ],
      [
        "ac",
        "y"
      ],
      [
        "so",
        "ci"
      ],
      [
        "po",
        "si"
      ],
      [
        "pre",
        "vious"
      ],
      [
        "ag",
        "ents"
      ],
      [
        "19",
        "6"
      ],
      [
        "com",
        "b"
      ],
      [
        "op",
        "en"
      ],
      [
        "inte",
        "gr"
      ],
      [
        "202",
        "5"
      ],
      [
        "imp",
        "le"
      ],
      [
        "represent",
        "ation"
      ],
      [
        "classi",
        "fi"
      ],
      [
        "iz",
        "ation"
      ],
      [
        "reg",
        "ression"
      ],
      [
        "ire",
        "d"
      ],
      [
        "ject",
        "s"
      ],
      [
        "dete",
        "ction"
      ],
      [
        "av",
        "ail"
      ],
      [
        "Ar",
        "tificial"
      ],
      [
        "pers",
        "on"
      ],
      [
        "accu",
        "racy"
      ],
      [
        "repor",
        "ted"
      ],
      [
        "gover",
        "n"
      ],
      [
        "inforce",
        "ment"
      ],
      [
        "B",
        "y"
      ],
      [
        "D",
        "if"
      ],
      [
        "E",
        "x"
      ],
      [
        "M",
        "icro"
      ],
      [
        "b",
        "en"
      ],
      [
        "b",
        "ution"
      ],
      [
        "e",
        "qu"
      ],
      [
        "h",
        "ist"
      ],
      [
        "k",
        "o"
      ],
      [
        "o",
        "und"
      ],
      [
        "r",
        "ight"
      ],
      [
        "r",
        "ules"
      ],
      [
        "t",
        "re"
      ],
      [
        "u",
        "le"
      ],
      [
        "u",
        "ation"
      ],
      [
        "u",
        "tions"
      ],
      [
        "z",
        "ed"
      ],
      [
        "er",
        "r"
      ],
      [
        "en",
        "co"
      ],
      [
        "and",
        "om"
      ],
      [
        "us",
        "tr"
      ],
      [
        "st",
        "and"
      ],
      [
        "ra",
        "ther"
      ],
      [
        "me",
        "as"
      ],
      [
        "20",
        "20"
      ],
      [
        "per",
        "cep"
      ],
      [
        "pe",
        "cial"
      ],
      [
        "enti",
        "ally"
      ],
      [
        "par",
        "ame"
      ],
      [
        "input",
        "s"
      ],
      [
        "trans",
        "l"
      ],
      [
        "nu",
        "clear"
      ],
      [
        "rel",
        "ations"
      ],
      [
        "mis",
        "sion"
      ],
      [
        "goal",
        "s"
      ],
      [
        "architect",
        "ures"
      ],
      [
        "conne",
        "ction"
      ],
      [
        "concern",
        "s"
      ],
      [
        "auton",
        "omous"
      ],
      [
        "hel",
        "p"
      ],
      [
        "imple",
        "ment"
      ],
      [
        "C",
        "A"
      ],
      [
        "L",
        "ear"
      ],
      [
        "c",
        "ing"
      ],
      [
        "d",
        "ed"
      ],
      [
        "e",
        "c"
      ],
      [
        "f",
        "usion"
      ],
      [
        "g",
        "ing"
      ],
      [
        "h",
        "y"
      ],
      [
        "o",
        "th"
      ],
      [
        "o",
        "se"
      ],
      [
        "t",
        "est"
      ],
      [
        "u",
        "ro"
      ],
      [
        "w",
        "a"
      ],
      [
        "w",
        "s"
      ],
      [
        "w",
        "at"
      ],
      [
        "in",
        "tern"
      ],
      [
        "er",
        "ial"
      ],
      [
        "as",
        "soci"
      ],
      [
        "co",
        "py"
      ],
      [
        "st",
        "ep"
      ],
      [
        "be",
        "came"
      ],
      [
        "ne",
        "ed"
      ],
      [
        "so",
        "cial"
      ],
      [
        "comp",
        "ression"
      ],
      [
        "im",
        "prov"
      ],
      [
        "gra",
        "ph"
      ],
      [
        "com",
        "es"
      ],
      [
        "cre",
        "ate"
      ],
      [
        "cre",
        "ated"
      ],
      [
        "ta",
        "ke"
      ],
      [
        "intellig",
        "ent"
      ],
      [
        "ef",
        "ficient"
      ],
      [
        "imp",
        "act"
      ],
      [
        "cont",
        "ro"
      ],
      [
        "represent",
        "ed"
      ],
      [
        "iz",
        "ed"
      ],
      [
        "output",
        "s"
      ],
      [
        "high",
        "er"
      ],
      [
        "typ",
        "es"
      ],
      [
        "tho",
        "se"
      ],
      [
        "Al",
        "pha"
      ],
      [
        "eng",
        "ine"
      ],
      [
        "struct",
        "ure"
      ],
      [
        "argu",
        "ed"
      ],
      [
        "rect",
        "ly"
      ],
      [
        "descri",
        "b"
      ],
      [
        "avail",
        "able"
      ],
      [
        "Micro",
        "soft"
      ],
      [
        "L",
        "ST"
      ],
      [
        "M",
        "s"
      ],
      [
        "M",
        "any"
      ],
      [
        "O",
        "pen"
      ],
      [
        "R",
        "NN"
      ],
      [
        "c",
        "are"
      ],
      [
        "d",
        "uring"
      ],
      [
        "f",
        "ut"
      ],
      [
        "f",
        "il"
      ],
      [
        "j",
        "ob"
      ],
      [
        "j",
        "our"
      ],
      [
        "l",
        "er"
      ],
      [
        "m",
        "all"
      ],
      [
        "o",
        "me"
      ],
      [
        "r",
        "andom"
      ],
      [
        "s",
        "to"
      ],
      [
        "s",
        "amp"
      ],
      [
        "s",
        "ince"
      ],
      [
        "on",
        "str"
      ],
      [
        "an",
        "ts"
      ],
      [
        "al",
        "th"
      ],
      [
        "the",
        "ore"
      ],
      [
        "es",
        "pecial"
      ],
      [
        "ti",
        "l"
      ],
      [
        "as",
        "ing"
      ],
      [
        "ve",
        "ctor"
      ],
      [
        "pro",
        "per"
      ],
      [
        "lo",
        "b"
      ],
      [
        "con",
        "tain"
      ],
      [
        "si",
        "mul"
      ],
      [
        "so",
        "ph"
      ],
      [
        "comp",
        "e"
      ],
      [
        "la",
        "in"
      ],
      [
        "tic",
        "s"
      ],
      [
        "sy",
        "n"
      ],
      [
        "202",
        "2"
      ],
      [
        "mat",
        "erial"
      ],
      [
        "do",
        "es"
      ],
      [
        "201",
        "5"
      ],
      [
        "201",
        "6"
      ],
      [
        "ev",
        "en"
      ],
      [
        "ev",
        "al"
      ],
      [
        "comm",
        "on"
      ],
      [
        "vari",
        "ables"
      ],
      [
        "mar",
        "ke"
      ],
      [
        "Ch",
        "at"
      ],
      [
        "med",
        "ical"
      ],
      [
        "ris",
        "k"
      ],
      [
        "ris",
        "ks"
      ],
      [
        "prob",
        "ability"
      ],
      [
        "he",
        "alth"
      ],
      [
        "vol",
        "ution"
      ],
      [
        "architect",
        "ure"
      ],
      [
        "design",
        "ed"
      ],
      [
        "dem",
        "onstr"
      ],
      [
        "particular",
        "ly"
      ],
      [
        "pri",
        "v"
      ],
      [
        "eth",
        "ical"
      ],
      [
        "dimension",
        "al"
      ],
      [
        "statistic",
        "al"
      ],
      [
        "sur",
        "ve"
      ],
      [
        "lead",
        "ing"
      ],
      [
        "Co",
        "mp"
      ],
      [
        "symbol",
        "ic"
      ],
      [
        "distri",
        "bution"
      ],
      [
        "nat",
        "ural"
      ],
      [
        "wr",
        "it"
      ],
      [
        "probabil",
        "istic"
      ],
      [
        "Lear",
        "ning"
      ],
      [
        "especial",
        "ly"
      ],
      [
        "1",
        "0"
      ],
      [
        "A",
        "s"
      ],
      [
        "L",
        "e"
      ],
      [
        "c",
        "ul"
      ],
      [
        "d",
        "ers"
      ],
      [
        "e",
        "as"
      ],
      [
        "g",
        "am"
      ],
      [
        "g",
        "ame"
      ],
      [
        "i",
        "an"
      ],
      [
        "l",
        "s"
      ],
      [
        "t",
        "end"
      ],
      [
        "u",
        "ne"
      ],
      [
        "v",
        "o"
      ],
      [
        "v",
        "id"
      ],
      [
        "w",
        "ide"
      ],
      [
        "in",
        "a"
      ],
      [
        "at",
        "ory"
      ],
      [
        "or",
        "ig"
      ],
      [
        "or",
        "gan"
      ],
      [
        "co",
        "un"
      ],
      [
        "ent",
        "ly"
      ],
      [
        "st",
        "s"
      ],
      [
        "ma",
        "de"
      ],
      [
        "be",
        "gan"
      ],
      [
        "ur",
        "ther"
      ],
      [
        "ct",
        "ors"
      ],
      [
        "me",
        "m"
      ],
      [
        "con",
        "cep"
      ],
      [
        "ener",
        "gy"
      ],
      [
        "po",
        "lic"
      ],
      [
        "di",
        "vid"
      ],
      [
        "with",
        "in"
      ],
      [
        "qu",
        "e"
      ],
      [
        "qu",
        "ality"
      ],
      [
        "id",
        "den"
      ],
      [
        "im",
        "in"
      ],
      [
        "19",
        "7"
      ],
      [
        "comput",
        "ation"
      ],
      [
        "bo",
        "ok"
      ],
      [
        "imp",
        "ort"
      ],
      [
        "bi",
        "as"
      ],
      [
        "produ",
        "ce"
      ],
      [
        "produ",
        "cts"
      ],
      [
        "au",
        "th"
      ],
      [
        "langu",
        "ages"
      ],
      [
        "pr",
        "of"
      ],
      [
        "00",
        "0"
      ],
      [
        "ctive",
        "ly"
      ],
      [
        "sci",
        "ence"
      ],
      [
        "199",
        "0s"
      ],
      [
        "cap",
        "able"
      ],
      [
        "bio",
        "logical"
      ],
      [
        "cr",
        "imin"
      ],
      [
        "fra",
        "me"
      ],
      [
        "sti",
        "t"
      ],
      [
        "emp",
        "loy"
      ],
      [
        "fit",
        "ting"
      ],
      [
        "estim",
        "ated"
      ],
      [
        "pop",
        "ular"
      ],
      [
        "inf",
        "lu"
      ],
      [
        "fair",
        "ness"
      ],
      [
        "vie",
        "w"
      ],
      [
        "relations",
        "hip"
      ],
      [
        "fut",
        "ure"
      ],
      [
        "priv",
        "acy"
      ],
      [
        "orig",
        "in"
      ],
      [
        "G",
        "A"
      ],
      [
        "M",
        "L"
      ],
      [
        "M",
        "ar"
      ],
      [
        "M",
        "ind"
      ],
      [
        "R",
        "ese"
      ],
      [
        "T",
        "uring"
      ],
      [
        "a",
        "mo"
      ],
      [
        "b",
        "ro"
      ],
      [
        "b",
        "illion"
      ],
      [
        "c",
        "ate"
      ],
      [
        "f",
        "und"
      ],
      [
        "l",
        "ack"
      ],
      [
        "m",
        "id"
      ],
      [
        "m",
        "ind"
      ],
      [
        "m",
        "illion"
      ],
      [
        "p",
        "or"
      ],
      [
        "r",
        "ule"
      ],
      [
        "s",
        "ho"
      ],
      [
        "s",
        "mall"
      ],
      [
        "t",
        "es"
      ],
      [
        "t",
        "ree"
      ],
      [
        "v",
        "ar"
      ],
      [
        "w",
        "id"
      ],
      [
        "in",
        "st"
      ],
      [
        "in",
        "sp"
      ],
      [
        "at",
        "t"
      ],
      [
        "at",
        "ors"
      ],
      [
        "re",
        "f"
      ],
      [
        "re",
        "ad"
      ],
      [
        "re",
        "inforcement"
      ],
      [
        "or",
        "der"
      ],
      [
        "ar",
        "ial"
      ],
      [
        "le",
        "g"
      ],
      [
        "ch",
        "ar"
      ],
      [
        "to",
        "p"
      ],
      [
        "ion",
        "s"
      ],
      [
        "it",
        "er"
      ],
      [
        "ma",
        "j"
      ],
      [
        "be",
        "come"
      ],
      [
        "se",
        "ts"
      ],
      [
        "for",
        "ward"
      ],
      [
        "ce",
        "iv"
      ],
      [
        "su",
        "f"
      ],
      [
        "su",
        "pp"
      ],
      [
        "un",
        "iv"
      ],
      [
        "ab",
        "or"
      ],
      [
        "ab",
        "ly"
      ],
      [
        "are",
        "d"
      ],
      [
        "no",
        "des"
      ],
      [
        "res",
        "pe"
      ],
      [
        "so",
        "ur"
      ],
      [
        "po",
        "in"
      ],
      [
        "model",
        "ing"
      ],
      [
        "In",
        "te"
      ],
      [
        "di",
        "o"
      ],
      [
        "can",
        "not"
      ],
      [
        "ll",
        "ed"
      ],
      [
        "fe",
        "ed"
      ],
      [
        "igh",
        "ted"
      ],
      [
        "comput",
        "ers"
      ],
      [
        "rep",
        "ort"
      ],
      [
        "fer",
        "ence"
      ],
      [
        "do",
        "main"
      ],
      [
        "fo",
        "c"
      ],
      [
        "mb",
        "ed"
      ],
      [
        "tim",
        "es"
      ],
      [
        "cont",
        "in"
      ],
      [
        "bi",
        "ases"
      ],
      [
        "Deep",
        "Mind"
      ],
      [
        "iz",
        "e"
      ],
      [
        "min",
        "ing"
      ],
      [
        "cent",
        "ers"
      ],
      [
        "ques",
        "tion"
      ],
      [
        "fi",
        "ed"
      ],
      [
        "function",
        "s"
      ],
      [
        "val",
        "u"
      ],
      [
        "St",
        "ates"
      ],
      [
        "vers",
        "arial"
      ],
      [
        "dete",
        "ct"
      ],
      [
        "gro",
        "w"
      ],
      [
        "auto",
        "m"
      ],
      [
        "success",
        "ful"
      ],
      [
        "consider",
        "ed"
      ],
      [
        "gen",
        "e"
      ],
      [
        "plan",
        "ning"
      ],
      [
        "targe",
        "t"
      ],
      [
        "beli",
        "ef"
      ],
      [
        "phys",
        "ical"
      ],
      [
        "hist",
        "ory"
      ],
      [
        "Chat",
        "GPT"
      ],
      [
        "Rese",
        "arch"
      ],
      [
        "amo",
        "un"
      ],
      [
        "univ",
        "ers"
      ],
      [
        "\"",
        ")"
      ],
      [
        "A",
        "no"
      ],
      [
        "B",
        "ay"
      ],
      [
        "I",
        "ma"
      ],
      [
        "O",
        "ther"
      ],
      [
        "S",
        "ome"
      ],
      [
        "a",
        "i"
      ],
      [
        "b",
        "as"
      ],
      [
        "d",
        "y"
      ],
      [
        "f",
        "urther"
      ],
      [
        "g",
        "in"
      ],
      [
        "h",
        "ar"
      ],
      [
        "h",
        "idden"
      ],
      [
        "l",
        "ate"
      ],
      [
        "s",
        "ent"
      ],
      [
        "in",
        "vol"
      ],
      [
        "an",
        "other"
      ],
      [
        "re",
        "y"
      ],
      [
        "al",
        "s"
      ],
      [
        "or",
        "d"
      ],
      [
        "ar",
        "ound"
      ],
      [
        "ing",
        "s"
      ],
      [
        "is",
        "ts"
      ],
      [
        "st",
        "ra"
      ],
      [
        "for",
        "ms"
      ],
      [
        "su",
        "mp"
      ],
      [
        "ul",
        "ation"
      ],
      [
        "con",
        "om"
      ],
      [
        "con",
        "text"
      ],
      [
        "ac",
        "tiv"
      ],
      [
        "si",
        "mp"
      ],
      [
        "ex",
        "ist"
      ],
      [
        "cl",
        "us"
      ],
      [
        "di",
        "tion"
      ],
      [
        "ate",
        "ly"
      ],
      [
        "ment",
        "al"
      ],
      [
        "use",
        "ful"
      ],
      [
        "dic",
        "tion"
      ],
      [
        "act",
        "er"
      ],
      [
        "am",
        "ong"
      ],
      [
        "201",
        "4"
      ],
      [
        "201",
        "7"
      ],
      [
        "str",
        "ic"
      ],
      [
        "process",
        "es"
      ],
      [
        "ind",
        "ustr"
      ],
      [
        "represent",
        "ations"
      ],
      [
        "bet",
        "ter"
      ],
      [
        "fa",
        "ke"
      ],
      [
        "sol",
        "utions"
      ],
      [
        "under",
        "stand"
      ],
      [
        "inter",
        "pre"
      ],
      [
        "incre",
        "ase"
      ],
      [
        "incre",
        "asing"
      ],
      [
        "med",
        "ia"
      ],
      [
        "dep",
        "loy"
      ],
      [
        "labe",
        "lled"
      ],
      [
        "difficul",
        "t"
      ],
      [
        "electr",
        "ic"
      ],
      [
        "Dif",
        "fusion"
      ],
      [
        "intern",
        "al"
      ],
      [
        "LST",
        "M"
      ],
      [
        "Open",
        "AI"
      ],
      [
        "import",
        "ant"
      ],
      [
        "GA",
        "N"
      ],
      [
        "var",
        "iety"
      ],
      [
        "insp",
        "ired"
      ],
      [
        "maj",
        "or"
      ],
      [
        "poin",
        "ts"
      ],
      [
        "Bay",
        "es"
      ],
      [
        "A",
        "c"
      ],
      [
        "A",
        "NN"
      ],
      [
        "D",
        "A"
      ],
      [
        "D",
        "NNs"
      ],
      [
        "M",
        "o"
      ],
      [
        "T",
        "r"
      ],
      [
        "a",
        "im"
      ],
      [
        "a",
        "dem"
      ],
      [
        "b",
        "r"
      ],
      [
        "c",
        "k"
      ],
      [
        "c",
        "ar"
      ],
      [
        "e",
        "ther"
      ],
      [
        "e",
        "mbed"
      ],
      [
        "f",
        "al"
      ],
      [
        "g",
        "lob"
      ],
      [
        "k",
        "ind"
      ],
      [
        "m",
        "on"
      ],
      [
        "o",
        "wn"
      ],
      [
        "p",
        "res"
      ],
      [
        "p",
        "ass"
      ],
      [
        "s",
        "ed"
      ],
      [
        "t",
        "un"
      ],
      [
        "u",
        "ations"
      ],
      [
        "w",
        "in"
      ],
      [
        "in",
        "s"
      ],
      [
        "in",
        "ci"
      ],
      [
        "er",
        "ing"
      ],
      [
        "on",
        "ce"
      ],
      [
        "re",
        "am"
      ],
      [
        "en",
        "cy"
      ],
      [
        "or",
        "ies"
      ],
      [
        "the",
        "sis"
      ],
      [
        "ch",
        "all"
      ],
      [
        "pro",
        "vide"
      ],
      [
        "ma",
        "kes"
      ],
      [
        "ly",
        "ing"
      ],
      [
        "se",
        "e"
      ],
      [
        "se",
        "en"
      ],
      [
        "ce",
        "ler"
      ],
      [
        "con",
        "f"
      ],
      [
        "con",
        "sci"
      ],
      [
        "are",
        "n"
      ],
      [
        "ac",
        "adem"
      ],
      [
        "ac",
        "celer"
      ],
      [
        "so",
        "c"
      ],
      [
        "comp",
        "on"
      ],
      [
        "comp",
        "ress"
      ],
      [
        "wh",
        "ether"
      ],
      [
        "di",
        "d"
      ],
      [
        "di",
        "ent"
      ],
      [
        "tr",
        "ies"
      ],
      [
        "ad",
        "versarial"
      ],
      [
        "ag",
        "ree"
      ],
      [
        "19",
        "5"
      ],
      [
        "pl",
        "ac"
      ],
      [
        "par",
        "se"
      ],
      [
        "ph",
        "ilo"
      ],
      [
        "str",
        "ate"
      ],
      [
        "ob",
        "tain"
      ],
      [
        "imp",
        "lic"
      ],
      [
        "includ",
        "es"
      ],
      [
        "au",
        "dio"
      ],
      [
        "field",
        "s"
      ],
      [
        "applic",
        "ation"
      ],
      [
        "pr",
        "inci"
      ],
      [
        "vide",
        "os"
      ],
      [
        "techni",
        "que"
      ],
      [
        "exp",
        "lo"
      ],
      [
        "exp",
        "ress"
      ],
      [
        "exp",
        "lain"
      ],
      [
        "Ch",
        "ina"
      ],
      [
        "mer",
        "ic"
      ],
      [
        "ran",
        "ge"
      ],
      [
        "show",
        "ed"
      ],
      [
        "complex",
        "ity"
      ],
      [
        "disco",
        "ver"
      ],
      [
        "disco",
        "very"
      ],
      [
        "sa",
        "fe"
      ],
      [
        "defin",
        "ed"
      ],
      [
        "depend",
        "ent"
      ],
      [
        "comb",
        "in"
      ],
      [
        "parame",
        "ters"
      ],
      [
        "mission",
        "s"
      ],
      [
        "hy",
        "po"
      ],
      [
        "oth",
        "ers"
      ],
      [
        "compe",
        "ti"
      ],
      [
        "cate",
        "gor"
      ],
      [
        "sho",
        "uld"
      ],
      [
        "Inte",
        "llig"
      ],
      [
        "Ano",
        "ther"
      ],
      [
        "Bayes",
        "ian"
      ],
      [
        "Tr",
        "ans"
      ],
      [
        "fal",
        "se"
      ],
      [
        "consci",
        "ous"
      ],
      [
        "philo",
        "soph"
      ],
      [
        ".",
        "."
      ],
      [
        "3",
        "0"
      ],
      [
        "A",
        "d"
      ],
      [
        "A",
        "ma"
      ],
      [
        "C",
        "NNs"
      ],
      [
        "H",
        "u"
      ],
      [
        "H",
        "int"
      ],
      [
        "I",
        "f"
      ],
      [
        "M",
        "A"
      ],
      [
        "S",
        "im"
      ],
      [
        "b",
        "ad"
      ],
      [
        "b",
        "est"
      ],
      [
        "c",
        "ra"
      ],
      [
        "d",
        "r"
      ],
      [
        "d",
        "ig"
      ],
      [
        "f",
        "ol"
      ],
      [
        "f",
        "ree"
      ],
      [
        "g",
        "ative"
      ],
      [
        "i",
        "tion"
      ],
      [
        "i",
        "res"
      ],
      [
        "m",
        "ust"
      ],
      [
        "n",
        "or"
      ],
      [
        "o",
        "t"
      ],
      [
        "o",
        "si"
      ],
      [
        "p",
        "ur"
      ],
      [
        "r",
        "al"
      ],
      [
        "r",
        "ate"
      ],
      [
        "r",
        "ights"
      ],
      [
        "r",
        "ighted"
      ],
      [
        "t",
        "able"
      ],
      [
        "v",
        "ent"
      ],
      [
        "v",
        "ices"
      ],
      [
        "w",
        "ar"
      ],
      [
        "y",
        "ear"
      ],
      [
        "z",
        "on"
      ],
      [
        "in",
        "ves"
      ],
      [
        "in",
        "divid"
      ],
      [
        "th",
        "in"
      ],
      [
        "re",
        "ed"
      ],
      [
        "re",
        "current"
      ],
      [
        "re",
        "stric"
      ],
      [
        "en",
        "ab"
      ],
      [
        "ar",
        "ti"
      ],
      [
        "ro",
        "ss"
      ],
      [
        "us",
        "er"
      ],
      [
        "co",
        "st"
      ],
      [
        "pro",
        "mp"
      ],
      [
        "pro",
        "te"
      ],
      [
        "ut",
        "e"
      ],
      [
        "un",
        "certain"
      ],
      [
        "me",
        "ans"
      ],
      [
        "con",
        "tr"
      ],
      [
        "il",
        "ity"
      ],
      [
        "ge",
        "t"
      ],
      [
        "si",
        "ze"
      ],
      [
        "comp",
        "le"
      ],
      [
        "ter",
        "ing"
      ],
      [
        "di",
        "ag"
      ],
      [
        "di",
        "rectly"
      ],
      [
        "tra",
        "ditional"
      ],
      [
        "pre",
        "ad"
      ],
      [
        "we",
        "ight"
      ],
      [
        "we",
        "ights"
      ],
      [
        "ative",
        "ly"
      ],
      [
        "fe",
        "el"
      ],
      [
        "dis",
        "crimin"
      ],
      [
        "gra",
        "m"
      ],
      [
        "gra",
        "dient"
      ],
      [
        "spe",
        "cial"
      ],
      [
        "par",
        "t"
      ],
      [
        "ty",
        "pe"
      ],
      [
        "fer",
        "ences"
      ],
      [
        "vis",
        "ual"
      ],
      [
        "ob",
        "jects"
      ],
      [
        "abil",
        "ities"
      ],
      [
        "over",
        "fitting"
      ],
      [
        "bl",
        "ack"
      ],
      [
        "predic",
        "tion"
      ],
      [
        "comm",
        "un"
      ],
      [
        "ish",
        "ing"
      ],
      [
        "serv",
        "ices"
      ],
      [
        "GP",
        "Us"
      ],
      [
        "St",
        "able"
      ],
      [
        "incre",
        "ased"
      ],
      [
        "pot",
        "entially"
      ],
      [
        "198",
        "0s"
      ],
      [
        "possi",
        "b"
      ],
      [
        "gro",
        "up"
      ],
      [
        "auto",
        "mat"
      ],
      [
        "level",
        "s"
      ],
      [
        "experi",
        "ence"
      ],
      [
        "observ",
        "ed"
      ],
      [
        "Ne",
        "ural"
      ],
      [
        "Ge",
        "off"
      ],
      [
        "play",
        "ing"
      ],
      [
        "ko",
        "v"
      ],
      [
        "meas",
        "ure"
      ],
      [
        "copy",
        "righted"
      ],
      [
        "volution",
        "al"
      ],
      [
        "mem",
        "ory"
      ],
      [
        "prof",
        "ess"
      ],
      [
        "relationship",
        "s"
      ],
      [
        "Mar",
        "kov"
      ],
      [
        "char",
        "acter"
      ],
      [
        "sour",
        "ce"
      ],
      [
        "contin",
        "u"
      ],
      [
        "gene",
        "tic"
      ],
      [
        "Ima",
        "ge"
      ],
      [
        "diction",
        "ary"
      ],
      [
        "academ",
        "ic"
      ],
      [
        "Intellig",
        "ence"
      ],
      [
        "Ama",
        "zon"
      ],
      [
        "Hint",
        "on"
      ],
      [
        "individ",
        "ual"
      ],
      [
        "A",
        "S"
      ],
      [
        "A",
        "lex"
      ],
      [
        "A",
        "meric"
      ],
      [
        "C",
        "O"
      ],
      [
        "C",
        "op"
      ],
      [
        "C",
        "NN"
      ],
      [
        "C",
        "om"
      ],
      [
        "D",
        "NN"
      ],
      [
        "E",
        "uro"
      ],
      [
        "H",
        "e"
      ],
      [
        "M",
        "E"
      ],
      [
        "R",
        "us"
      ],
      [
        "S",
        "y"
      ],
      [
        "c",
        "ases"
      ],
      [
        "d",
        "ra"
      ],
      [
        "e",
        "conom"
      ],
      [
        "e",
        "missions"
      ],
      [
        "g",
        "ate"
      ],
      [
        "g",
        "ges"
      ],
      [
        "h",
        "en"
      ],
      [
        "i",
        "ble"
      ],
      [
        "i",
        "ous"
      ],
      [
        "j",
        "ust"
      ],
      [
        "m",
        "ight"
      ],
      [
        "n",
        "al"
      ],
      [
        "o",
        "u"
      ],
      [
        "p",
        "la"
      ],
      [
        "r",
        "un"
      ],
      [
        "r",
        "ates"
      ],
      [
        "at",
        "a"
      ],
      [
        "at",
        "s"
      ],
      [
        "at",
        "bo"
      ],
      [
        "an",
        "g"
      ],
      [
        "an",
        "ced"
      ],
      [
        "re",
        "ceiv"
      ],
      [
        "en",
        "h"
      ],
      [
        "or",
        "al"
      ],
      [
        "ar",
        "ly"
      ],
      [
        "es",
        "pread"
      ],
      [
        "le",
        "ast"
      ],
      [
        "as",
        "ter"
      ],
      [
        "ch",
        "atbo"
      ],
      [
        "co",
        "ll"
      ],
      [
        "st",
        "ates"
      ],
      [
        "ma",
        "xim"
      ],
      [
        "ra",
        "re"
      ],
      [
        "ne",
        "y"
      ],
      [
        "ne",
        "cess"
      ],
      [
        "ne",
        "xt"
      ],
      [
        "se",
        "par"
      ],
      [
        "su",
        "gges"
      ],
      [
        "lo",
        "cal"
      ],
      [
        "con",
        "d"
      ],
      [
        "ac",
        "ks"
      ],
      [
        "ac",
        "cur"
      ],
      [
        "ac",
        "cording"
      ],
      [
        "si",
        "ble"
      ],
      [
        "dat",
        "ab"
      ],
      [
        "ex",
        "pe"
      ],
      [
        "ex",
        "tra"
      ],
      [
        "wh",
        "ite"
      ],
      [
        "ter",
        "ms"
      ],
      [
        "cl",
        "es"
      ],
      [
        "po",
        "se"
      ],
      [
        "ha",
        "ving"
      ],
      [
        "In",
        "ter"
      ],
      [
        "man",
        "ip"
      ],
      [
        "tr",
        "u"
      ],
      [
        "tr",
        "ue"
      ],
      [
        "ad",
        "dition"
      ],
      [
        "we",
        "b"
      ],
      [
        "ction",
        "s"
      ],
      [
        "du",
        "e"
      ],
      [
        "par",
        "ti"
      ],
      [
        "202",
        "1"
      ],
      [
        "mat",
        "ch"
      ],
      [
        "cog",
        "n"
      ],
      [
        "do",
        "wn"
      ],
      [
        "fo",
        "cus"
      ],
      [
        "201",
        "0s"
      ],
      [
        "low",
        "er"
      ],
      [
        "ev",
        "ent"
      ],
      [
        "comm",
        "er"
      ],
      [
        "min",
        "im"
      ],
      [
        "fa",
        "il"
      ],
      [
        "sol",
        "ving"
      ],
      [
        "under",
        "lying"
      ],
      [
        "go",
        "od"
      ],
      [
        "mis",
        "information"
      ],
      [
        "like",
        "ly"
      ],
      [
        "mar",
        "k"
      ],
      [
        "serv",
        "ice"
      ],
      [
        "new",
        "s"
      ],
      [
        "exper",
        "ts"
      ],
      [
        "ass",
        "ign"
      ],
      [
        "vir",
        "t"
      ],
      [
        "sci",
        "enti"
      ],
      [
        "ens",
        "or"
      ],
      [
        "real",
        "istic"
      ],
      [
        "perform",
        "ing"
      ],
      [
        "allow",
        "s"
      ],
      [
        "require",
        "d"
      ],
      [
        "conne",
        "cted"
      ],
      [
        "effe",
        "cts"
      ],
      [
        "sh",
        "ort"
      ],
      [
        "sing",
        "le"
      ],
      [
        "redu",
        "ce"
      ],
      [
        "redu",
        "ction"
      ],
      [
        "col",
        "lection"
      ],
      [
        "statistic",
        "s"
      ],
      [
        "clo",
        "ud"
      ],
      [
        "sequ",
        "ence"
      ],
      [
        "LL",
        "Ms"
      ],
      [
        "rele",
        "ased"
      ],
      [
        "sit",
        "uations"
      ],
      [
        "behavi",
        "our"
      ],
      [
        "attemp",
        "t"
      ],
      [
        "recommend",
        "ations"
      ],
      [
        "classifi",
        "er"
      ],
      [
        "govern",
        "ment"
      ],
      [
        "tre",
        "es"
      ],
      [
        "err",
        "or"
      ],
      [
        "percep",
        "tr"
      ],
      [
        "CA",
        "P"
      ],
      [
        "wat",
        "er"
      ],
      [
        "contro",
        "l"
      ],
      [
        "engine",
        "ering"
      ],
      [
        "describ",
        "ed"
      ],
      [
        "proper",
        "ties"
      ],
      [
        "eval",
        "u"
      ],
      [
        "demonstr",
        "ated"
      ],
      [
        "Comp",
        "ut"
      ],
      [
        "gam",
        "es"
      ],
      [
        "wide",
        "ly"
      ],
      [
        "auth",
        "or"
      ],
      [
        "origin",
        "al"
      ],
      [
        "wid",
        "espread"
      ],
      [
        "ref",
        "ers"
      ],
      [
        "leg",
        "al"
      ],
      [
        "valu",
        "es"
      ],
      [
        "dy",
        "nam"
      ],
      [
        "sump",
        "tion"
      ],
      [
        "Ac",
        "cording"
      ],
      [
        "embed",
        "ding"
      ],
      [
        "fol",
        "low"
      ],
      [
        "year",
        "s"
      ],
      [
        "diag",
        "no"
      ],
      [
        "Geoff",
        "rey"
      ],
      [
        "Euro",
        "pe"
      ],
      [
        ")",
        ";"
      ],
      [
        "B",
        "e"
      ],
      [
        "D",
        "ata"
      ],
      [
        "E",
        "n"
      ],
      [
        "F",
        "e"
      ],
      [
        "I",
        "D"
      ],
      [
        "M",
        "id"
      ],
      [
        "P",
        "h"
      ],
      [
        "P",
        "ar"
      ],
      [
        "P",
        "Us"
      ],
      [
        "S",
        "V"
      ],
      [
        "S",
        "ch"
      ],
      [
        "T",
        "o"
      ],
      [
        "V",
        "ari"
      ],
      [
        "W",
        "e"
      ],
      [
        "b",
        "an"
      ],
      [
        "d",
        "a"
      ],
      [
        "f",
        "old"
      ],
      [
        "h",
        "is"
      ],
      [
        "i",
        "dat"
      ],
      [
        "k",
        "y"
      ],
      [
        "o",
        "ugh"
      ],
      [
        "p",
        "i"
      ],
      [
        "p",
        "ho"
      ],
      [
        "p",
        "aren"
      ],
      [
        "s",
        "c"
      ],
      [
        "s",
        "es"
      ],
      [
        "s",
        "enti"
      ],
      [
        "t",
        "ro"
      ],
      [
        "u",
        "ch"
      ],
      [
        "u",
        "di"
      ],
      [
        "in",
        "iti"
      ],
      [
        "th",
        "s"
      ],
      [
        "th",
        "ous"
      ],
      [
        "er",
        "o"
      ],
      [
        "er",
        "arch"
      ],
      [
        "at",
        "ten"
      ],
      [
        "an",
        "om"
      ],
      [
        "an",
        "cial"
      ],
      [
        "re",
        "ach"
      ],
      [
        "re",
        "cogn"
      ],
      [
        "en",
        "si"
      ],
      [
        "ti",
        "ves"
      ],
      [
        "is",
        "ing"
      ],
      [
        "le",
        "y"
      ],
      [
        "as",
        "tic"
      ],
      [
        "as",
        "et"
      ],
      [
        "ch",
        "e"
      ],
      [
        "de",
        "vices"
      ],
      [
        "ent",
        "er"
      ],
      [
        "pro",
        "g"
      ],
      [
        "pro",
        "jects"
      ],
      [
        "ma",
        "p"
      ],
      [
        "ra",
        "ce"
      ],
      [
        "ne",
        "gative"
      ],
      [
        "mo",
        "der"
      ],
      [
        "learn",
        "s"
      ],
      [
        "lo",
        "ss"
      ],
      [
        "me",
        "an"
      ],
      [
        "ith",
        "er"
      ],
      [
        "con",
        "s"
      ],
      [
        "con",
        "ven"
      ],
      [
        "are",
        "as"
      ],
      [
        "ac",
        "cess"
      ],
      [
        "res",
        "our"
      ],
      [
        "si",
        "an"
      ],
      [
        "si",
        "de"
      ],
      [
        "comp",
        "ared"
      ],
      [
        "comp",
        "osi"
      ],
      [
        "dat",
        "ase"
      ],
      [
        "dat",
        "aset"
      ],
      [
        "20",
        "19"
      ],
      [
        "ex",
        "act"
      ],
      [
        "ex",
        "plic"
      ],
      [
        "ver",
        "se"
      ],
      [
        "gener",
        "ally"
      ],
      [
        "gener",
        "ating"
      ],
      [
        "qu",
        "anti"
      ],
      [
        "ad",
        "ap"
      ],
      [
        "ad",
        "op"
      ],
      [
        "li",
        "m"
      ],
      [
        "li",
        "er"
      ],
      [
        "neur",
        "on"
      ],
      [
        "ke",
        "y"
      ],
      [
        "ho",
        "wever"
      ],
      [
        "ci",
        "es"
      ],
      [
        "com",
        "ing"
      ],
      [
        "spe",
        "ed"
      ],
      [
        "spe",
        "ak"
      ],
      [
        "ri",
        "x"
      ],
      [
        "log",
        "ies"
      ],
      [
        "do",
        "min"
      ],
      [
        "201",
        "2"
      ],
      [
        "201",
        "8"
      ],
      [
        "mb",
        "ers"
      ],
      [
        "cogni",
        "tive"
      ],
      [
        "ev",
        "ol"
      ],
      [
        "recogni",
        "ze"
      ],
      [
        "cor",
        "por"
      ],
      [
        "classi",
        "fy"
      ],
      [
        "but",
        "ed"
      ],
      [
        "nu",
        "mer"
      ],
      [
        "fa",
        "kes"
      ],
      [
        "cent",
        "ral"
      ],
      [
        "val",
        "ue"
      ],
      [
        "resul",
        "t"
      ],
      [
        "labe",
        "ls"
      ],
      [
        "Al",
        "though"
      ],
      [
        "cap",
        "abilities"
      ],
      [
        "optim",
        "isation"
      ],
      [
        "optim",
        "ization"
      ],
      [
        "fact",
        "or"
      ],
      [
        "pri",
        "or"
      ],
      [
        "eth",
        "ics"
      ],
      [
        "hi",
        "erarch"
      ],
      [
        "tiv",
        "ity"
      ],
      [
        "respon",
        "se"
      ],
      [
        "fra",
        "ud"
      ],
      [
        "pa",
        "per"
      ],
      [
        "robo",
        "t"
      ],
      [
        "robo",
        "ts"
      ],
      [
        "significant",
        "ly"
      ],
      [
        "lat",
        "er"
      ],
      [
        "lat",
        "ent"
      ],
      [
        "fin",
        "ancial"
      ],
      [
        "provid",
        "es"
      ],
      [
        "ilo",
        "t"
      ],
      [
        "achie",
        "ved"
      ],
      [
        "buil",
        "d"
      ],
      [
        "buil",
        "t"
      ],
      [
        "behavi",
        "or"
      ],
      [
        "issu",
        "es"
      ],
      [
        "196",
        "0s"
      ],
      [
        "integr",
        "ated"
      ],
      [
        "ben",
        "ef"
      ],
      [
        "2020",
        "s"
      ],
      [
        "percep",
        "tion"
      ],
      [
        "transl",
        "ation"
      ],
      [
        "associ",
        "ated"
      ],
      [
        "improv",
        "ed"
      ],
      [
        "job",
        "s"
      ],
      [
        "jour",
        "ney"
      ],
      [
        "theore",
        "tical"
      ],
      [
        "marke",
        "t"
      ],
      [
        "surve",
        "y"
      ],
      [
        "writ",
        "ing"
      ],
      [
        "tend",
        "ed"
      ],
      [
        "frame",
        "work"
      ],
      [
        "stit",
        "ute"
      ],
      [
        "read",
        "y"
      ],
      [
        "suf",
        "ficient"
      ],
      [
        "domain",
        "s"
      ],
      [
        "amoun",
        "ts"
      ],
      [
        "sent",
        "ences"
      ],
      [
        "activ",
        "ation"
      ],
      [
        "interpre",
        "t"
      ],
      [
        "tun",
        "ed"
      ],
      [
        "compon",
        "ent"
      ],
      [
        "dr",
        "ug"
      ],
      [
        "comple",
        "te"
      ],
      [
        "gram",
        "mar"
      ],
      [
        "commer",
        "cial"
      ],
      [
        "Mid",
        "journey"
      ],
      [
        "thous",
        "and"
      ],
      [
        "anom",
        "al"
      ],
      [
        "datase",
        "ts"
      ],
      [
        "explic",
        "it"
      ],
      [
        "1",
        "6"
      ],
      [
        "7",
        "0"
      ],
      [
        "A",
        "p"
      ],
      [
        "A",
        "ct"
      ],
      [
        "A",
        "NNs"
      ],
      [
        "E",
        "ach"
      ],
      [
        "I",
        "T"
      ],
      [
        "J",
        "o"
      ],
      [
        "M",
        "e"
      ],
      [
        "M",
        "od"
      ],
      [
        "M",
        "ay"
      ],
      [
        "M",
        "IT"
      ],
      [
        "O",
        "n"
      ],
      [
        "S",
        "ince"
      ],
      [
        "b",
        "ur"
      ],
      [
        "b",
        "od"
      ],
      [
        "d",
        "one"
      ],
      [
        "e",
        "mo"
      ],
      [
        "e",
        "li"
      ],
      [
        "e",
        "very"
      ],
      [
        "f",
        "ar"
      ],
      [
        "f",
        "ine"
      ],
      [
        "f",
        "ies"
      ],
      [
        "f",
        "requ"
      ],
      [
        "h",
        "n"
      ],
      [
        "h",
        "er"
      ],
      [
        "h",
        "ere"
      ],
      [
        "i",
        "od"
      ],
      [
        "k",
        "er"
      ],
      [
        "l",
        "ar"
      ],
      [
        "m",
        "ial"
      ],
      [
        "m",
        "iti"
      ],
      [
        "m",
        "uch"
      ],
      [
        "o",
        "c"
      ],
      [
        "p",
        "ic"
      ],
      [
        "t",
        "z"
      ],
      [
        "t",
        "ur"
      ],
      [
        "u",
        "m"
      ],
      [
        "u",
        "til"
      ],
      [
        "v",
        "ant"
      ],
      [
        "y",
        "p"
      ],
      [
        "y",
        "le"
      ],
      [
        "y",
        "et"
      ],
      [
        "z",
        "ing"
      ],
      [
        "in",
        "ference"
      ],
      [
        "th",
        "ing"
      ],
      [
        "th",
        "us"
      ],
      [
        "th",
        "res"
      ],
      [
        "er",
        "n"
      ],
      [
        "er",
        "y"
      ],
      [
        "on",
        "es"
      ],
      [
        "on",
        "ic"
      ],
      [
        "an",
        "n"
      ],
      [
        "re",
        "con"
      ],
      [
        "en",
        "e"
      ],
      [
        "en",
        "su"
      ],
      [
        "al",
        "ready"
      ],
      [
        "of",
        "fer"
      ],
      [
        "ch",
        "astic"
      ],
      [
        "to",
        "ken"
      ],
      [
        "ro",
        "w"
      ],
      [
        "de",
        "c"
      ],
      [
        "de",
        "term"
      ],
      [
        "us",
        "age"
      ],
      [
        "it",
        "self"
      ],
      [
        "st",
        "ated"
      ],
      [
        "st",
        "ream"
      ],
      [
        "st",
        "yle"
      ],
      [
        "be",
        "comes"
      ],
      [
        "ly",
        "no"
      ],
      [
        "ra",
        "c"
      ],
      [
        "ra",
        "w"
      ],
      [
        "ne",
        "uro"
      ],
      [
        "se",
        "cond"
      ],
      [
        "su",
        "m"
      ],
      [
        "un",
        "til"
      ],
      [
        "lo",
        "c"
      ],
      [
        "lo",
        "o"
      ],
      [
        "con",
        "volutional"
      ],
      [
        "con",
        "sumption"
      ],
      [
        "ab",
        "l"
      ],
      [
        "are",
        "a"
      ],
      [
        "il",
        "it"
      ],
      [
        "comp",
        "any"
      ],
      [
        "ex",
        "is"
      ],
      [
        "per",
        "iod"
      ],
      [
        "po",
        "int"
      ],
      [
        "po",
        "lyno"
      ],
      [
        "di",
        "a"
      ],
      [
        "la",
        "ws"
      ],
      [
        "ap",
        "pe"
      ],
      [
        "tr",
        "y"
      ],
      [
        "ad",
        "d"
      ],
      [
        "ad",
        "ditional"
      ],
      [
        "li",
        "mit"
      ],
      [
        "ag",
        "g"
      ],
      [
        "ag",
        "reed"
      ],
      [
        "dis",
        "e"
      ],
      [
        "dis",
        "cus"
      ],
      [
        "dis",
        "play"
      ],
      [
        "cre",
        "d"
      ],
      [
        "cre",
        "ating"
      ],
      [
        "ta",
        "kes"
      ],
      [
        "bo",
        "x"
      ],
      [
        "bo",
        "om"
      ],
      [
        "cal",
        "cul"
      ],
      [
        "mat",
        "rix"
      ],
      [
        "ph",
        "one"
      ],
      [
        "ob",
        "ject"
      ],
      [
        "ef",
        "fici"
      ],
      [
        "ev",
        "id"
      ],
      [
        "imp",
        "os"
      ],
      [
        "predic",
        "ting"
      ],
      [
        "predic",
        "tive"
      ],
      [
        "bi",
        "ased"
      ],
      [
        "iz",
        "ing"
      ],
      [
        "est",
        "abl"
      ],
      [
        "algorithm",
        "ic"
      ],
      [
        "reg",
        "ard"
      ],
      [
        "sol",
        "ution"
      ],
      [
        "anal",
        "og"
      ],
      [
        "some",
        "times"
      ],
      [
        "up",
        "on"
      ],
      [
        "requ",
        "ires"
      ],
      [
        "GP",
        "U"
      ],
      [
        "os",
        "en"
      ],
      [
        "def",
        "ine"
      ],
      [
        "cri",
        "tic"
      ],
      [
        "dep",
        "th"
      ],
      [
        "ass",
        "ist"
      ],
      [
        "Re",
        "g"
      ],
      [
        "differ",
        "ential"
      ],
      [
        "labe",
        "led"
      ],
      [
        "struct",
        "ures"
      ],
      [
        "fact",
        "s"
      ],
      [
        "oper",
        "ations"
      ],
      [
        "effe",
        "ct"
      ],
      [
        "effe",
        "ctive"
      ],
      [
        "concern",
        "ed"
      ],
      [
        "hand",
        "le"
      ],
      [
        "experi",
        "ments"
      ],
      [
        "similar",
        "ity"
      ],
      [
        "there",
        "by"
      ],
      [
        "transform",
        "er"
      ],
      [
        "sa",
        "id"
      ],
      [
        "rele",
        "vant"
      ],
      [
        "approxim",
        "ation"
      ],
      [
        "approxim",
        "ate"
      ],
      [
        "sit",
        "uation"
      ],
      [
        "analy",
        "zed"
      ],
      [
        "cho",
        "ose"
[...]
